/*
 * NN-16-16 without integer optimization
 */
/*
unsigned char g_model[] = {
  0x1c, 0x00, 0x00, 0x00, 0x54, 0x46, 0x4c, 0x33, 0x14, 0x00, 0x20, 0x00,
  0x04, 0x00, 0x08, 0x00, 0x0c, 0x00, 0x10, 0x00, 0x14, 0x00, 0x00, 0x00,
  0x18, 0x00, 0x1c, 0x00, 0x14, 0x00, 0x00, 0x00, 0x03, 0x00, 0x00, 0x00,
  0x08, 0x0b, 0x00, 0x00, 0x04, 0x07, 0x00, 0x00, 0xec, 0x06, 0x00, 0x00,
  0xd0, 0x00, 0x00, 0x00, 0x98, 0x00, 0x00, 0x00, 0x04, 0x00, 0x00, 0x00,
  0x01, 0x00, 0x00, 0x00, 0x10, 0x00, 0x00, 0x00, 0x0c, 0x00, 0x14, 0x00,
  0x04, 0x00, 0x08, 0x00, 0x0c, 0x00, 0x10, 0x00, 0x0c, 0x00, 0x00, 0x00,
  0x54, 0x00, 0x00, 0x00, 0x2c, 0x00, 0x00, 0x00, 0x14, 0x00, 0x00, 0x00,
  0x04, 0x00, 0x00, 0x00, 0x05, 0x00, 0x00, 0x00, 0x73, 0x65, 0x72, 0x76,
  0x65, 0x00, 0x00, 0x00, 0x0f, 0x00, 0x00, 0x00, 0x73, 0x65, 0x72, 0x76,
  0x69, 0x6e, 0x67, 0x5f, 0x64, 0x65, 0x66, 0x61, 0x75, 0x6c, 0x74, 0x00,
  0x01, 0x00, 0x00, 0x00, 0x04, 0x00, 0x00, 0x00, 0xb8, 0xff, 0xff, 0xff,
  0x08, 0x00, 0x00, 0x00, 0x09, 0x00, 0x00, 0x00, 0x08, 0x00, 0x00, 0x00,
  0x64, 0x65, 0x6e, 0x73, 0x65, 0x5f, 0x33, 0x33, 0x00, 0x00, 0x00, 0x00,
  0x01, 0x00, 0x00, 0x00, 0x04, 0x00, 0x00, 0x00, 0xd2, 0xf9, 0xff, 0xff,
  0x04, 0x00, 0x00, 0x00, 0x0e, 0x00, 0x00, 0x00, 0x64, 0x65, 0x6e, 0x73,
  0x65, 0x5f, 0x33, 0x31, 0x5f, 0x69, 0x6e, 0x70, 0x75, 0x74, 0x00, 0x00,
  0x01, 0x00, 0x00, 0x00, 0x0c, 0x00, 0x00, 0x00, 0x08, 0x00, 0x0c, 0x00,
  0x04, 0x00, 0x08, 0x00, 0x08, 0x00, 0x00, 0x00, 0x08, 0x00, 0x00, 0x00,
  0x0b, 0x00, 0x00, 0x00, 0x13, 0x00, 0x00, 0x00, 0x6d, 0x69, 0x6e, 0x5f,
  0x72, 0x75, 0x6e, 0x74, 0x69, 0x6d, 0x65, 0x5f, 0x76, 0x65, 0x72, 0x73,
  0x69, 0x6f, 0x6e, 0x00, 0x0c, 0x00, 0x00, 0x00, 0x08, 0x06, 0x00, 0x00,
  0xf4, 0x05, 0x00, 0x00, 0xd8, 0x05, 0x00, 0x00, 0x74, 0x05, 0x00, 0x00,
  0x20, 0x05, 0x00, 0x00, 0xcc, 0x04, 0x00, 0x00, 0xb8, 0x00, 0x00, 0x00,
  0x64, 0x00, 0x00, 0x00, 0x58, 0x00, 0x00, 0x00, 0x44, 0x00, 0x00, 0x00,
  0x30, 0x00, 0x00, 0x00, 0x04, 0x00, 0x00, 0x00, 0x56, 0xfa, 0xff, 0xff,
  0x04, 0x00, 0x00, 0x00, 0x10, 0x00, 0x00, 0x00, 0x31, 0x2e, 0x35, 0x2e,
  0x30, 0x00, 0x00, 0x00, 0x00, 0x00, 0x00, 0x00, 0x00, 0x00, 0x00, 0x00,
  0x00, 0x00, 0x00, 0x00, 0x00, 0x00, 0x00, 0x00, 0x00, 0x00, 0x00, 0x00,
  0x6c, 0xf6, 0xff, 0xff, 0x00, 0x00, 0x00, 0x00, 0x00, 0x00, 0x00, 0x00,
  0x00, 0x00, 0x00, 0x00, 0x7c, 0xf6, 0xff, 0xff, 0x00, 0x00, 0x00, 0x00,
  0x00, 0x00, 0x00, 0x00, 0x00, 0x00, 0x00, 0x00, 0x8c, 0xf6, 0xff, 0xff,
  0x00, 0x00, 0x00, 0x00, 0xa6, 0xfa, 0xff, 0xff, 0x04, 0x00, 0x00, 0x00,
  0x40, 0x00, 0x00, 0x00, 0x4e, 0x50, 0xb7, 0xbe, 0xef, 0x6d, 0xe5, 0x3e,
  0x8d, 0x44, 0x0e, 0x3f, 0x08, 0x31, 0x39, 0xbf, 0x24, 0x0a, 0xed, 0xbd,
  0xd3, 0x5e, 0x39, 0x3f, 0xcd, 0x84, 0x22, 0xbf, 0x7e, 0x45, 0x10, 0x3c,
  0xcc, 0xe2, 0x54, 0xbf, 0xd5, 0x02, 0x13, 0x3d, 0xd4, 0x6a, 0xda, 0x3f,
  0xc4, 0x73, 0x81, 0xbf, 0xc0, 0x38, 0x83, 0xbc, 0x02, 0xc1, 0x20, 0xbf,
  0x00, 0x77, 0x65, 0xbb, 0xf4, 0x18, 0xc4, 0xbc, 0x00, 0x00, 0x00, 0x00,
  0xf6, 0xfa, 0xff, 0xff, 0x04, 0x00, 0x00, 0x00, 0x00, 0x04, 0x00, 0x00,
  0x58, 0x39, 0xc9, 0xbd, 0xd9, 0x2b, 0x77, 0x3e, 0x0f, 0x62, 0x3c, 0xbe,
  0xa1, 0xec, 0xda, 0xbe, 0xc0, 0xc6, 0x9a, 0xbe, 0x96, 0x10, 0x0c, 0x3f,
  0x74, 0x3c, 0x8d, 0x3d, 0xaf, 0x01, 0x1d, 0x3e, 0x10, 0xa5, 0x4f, 0x3d,
  0xb5, 0x3e, 0x81, 0x3f, 0x1e, 0xea, 0x8f, 0xbe, 0x8e, 0x42, 0x62, 0x3e,
  0x80, 0x48, 0xcb, 0xbd, 0x55, 0xb6, 0xcc, 0x3e, 0xa1, 0xba, 0xa4, 0x3e,
  0x2c, 0x55, 0xe8, 0x3d, 0xee, 0x89, 0xae, 0x3e, 0x09, 0x35, 0x0b, 0x3e,
  0xb0, 0xf9, 0xd0, 0xbd, 0xe8, 0x0c, 0xb7, 0xbd, 0x44, 0xd9, 0x54, 0xbd,
  0x21, 0x6a, 0x13, 0xbf, 0x24, 0x13, 0xd8, 0xbe, 0x98, 0x6e, 0xee, 0x3d,
  0x48, 0xd0, 0x94, 0x3e, 0x95, 0xec, 0x0f, 0xbf, 0x3a, 0xa6, 0x0f, 0x3e,
  0x04, 0xd0, 0xcb, 0x3e, 0x2b, 0x86, 0xda, 0x3e, 0x40, 0x22, 0x41, 0x3c,
  0x80, 0xd2, 0xe3, 0x3b, 0x7c, 0x5c, 0xe6, 0xbd, 0x70, 0x6a, 0x74, 0xbe,
  0x20, 0x07, 0x99, 0x3d, 0x08, 0x16, 0xb6, 0xbe, 0xa9, 0xb5, 0xa5, 0x3e,
  0x65, 0x16, 0x2c, 0x3f, 0x9b, 0x6d, 0x04, 0xbe, 0x00, 0x20, 0x17, 0x38,
  0x40, 0xba, 0x36, 0xbe, 0x4c, 0xcc, 0x45, 0x3e, 0x54, 0x65, 0x8a, 0xbf,
  0x01, 0xb6, 0x9e, 0x3e, 0x4f, 0xea, 0x05, 0x3f, 0x44, 0xcf, 0x9a, 0x3d,
  0x97, 0xaf, 0x88, 0x3e, 0x20, 0x4c, 0x2e, 0x3d, 0x11, 0x76, 0xb8, 0x3e,
  0x89, 0x45, 0x8f, 0x3d, 0xf2, 0xac, 0xc7, 0xbe, 0x24, 0x37, 0x69, 0xbe,
  0x9e, 0x32, 0x6d, 0x3e, 0x96, 0xa7, 0x8e, 0xbd, 0xef, 0xfa, 0xe7, 0xbd,
  0xc0, 0x4f, 0x45, 0x3c, 0xfd, 0x63, 0x18, 0xbf, 0x6c, 0x6e, 0x0d, 0x3d,
  0xbd, 0x93, 0x36, 0x3f, 0x47, 0x34, 0x0c, 0x3e, 0xea, 0x3f, 0x13, 0xbf,
  0xda, 0x4b, 0x47, 0x3e, 0xac, 0xcd, 0x99, 0x3d, 0xc3, 0xed, 0xdb, 0x3e,
  0xe4, 0x1b, 0xc8, 0xbe, 0x3c, 0x7c, 0xae, 0xbe, 0x30, 0x48, 0x11, 0xbe,
  0x8a, 0x9d, 0x6b, 0x3e, 0xce, 0x4e, 0x51, 0x3e, 0x52, 0xa2, 0x0d, 0xbe,
  0xd8, 0x22, 0xef, 0xbd, 0x75, 0x18, 0x83, 0x3e, 0x04, 0xa1, 0xe7, 0x3d,
  0x56, 0x02, 0xba, 0xbe, 0x62, 0xad, 0x1e, 0xbe, 0xc0, 0x52, 0x02, 0xbc,
  0xce, 0x05, 0x8c, 0xbe, 0xde, 0x8a, 0x9c, 0xbe, 0x7a, 0x85, 0x8c, 0xbe,
  0x46, 0xf6, 0x75, 0x3e, 0xeb, 0xea, 0xc2, 0x3e, 0x85, 0x2a, 0xe5, 0xbe,
  0xff, 0x44, 0x8d, 0x3e, 0x5b, 0xe0, 0xa9, 0x3e, 0x65, 0x72, 0x4a, 0xbe,
  0x7d, 0xbf, 0x60, 0xbe, 0xc6, 0xfc, 0x6b, 0xbe, 0xb0, 0xe3, 0xa7, 0xbe,
  0xfb, 0x18, 0x41, 0xbe, 0x28, 0x85, 0xf4, 0xbd, 0xa0, 0x4e, 0xe3, 0x3e,
  0x1e, 0x2f, 0x50, 0x3d, 0xaf, 0x11, 0x6a, 0x3e, 0x2a, 0x0e, 0x0e, 0xbe,
  0x30, 0xd1, 0x2e, 0xbe, 0xe5, 0x20, 0xae, 0x3e, 0x37, 0xac, 0xa0, 0xbe,
  0xa2, 0xfb, 0x8c, 0x3e, 0x7f, 0x06, 0x6a, 0xbe, 0x9b, 0x18, 0x97, 0x3e,
  0xe8, 0x7b, 0xf9, 0xbd, 0xc9, 0x6c, 0xcf, 0xbe, 0x79, 0xb6, 0x0a, 0x3d,
  0x44, 0x4f, 0xba, 0xbe, 0xf2, 0x81, 0x13, 0x3e, 0x63, 0xc2, 0xfe, 0x3e,
  0xa5, 0xfc, 0x49, 0x3f, 0x1c, 0x69, 0x8f, 0x3b, 0x82, 0xf4, 0x37, 0xbe,
  0x69, 0x06, 0x9d, 0x3e, 0x49, 0x4a, 0x88, 0x3e, 0xba, 0xa5, 0x94, 0xbe,
  0x17, 0x75, 0xcf, 0xbe, 0x6c, 0x9b, 0xdd, 0xbd, 0xb6, 0x68, 0xd3, 0xbe,
  0x7d, 0x2a, 0xd2, 0x3e, 0x96, 0x7a, 0x0a, 0xbe, 0xea, 0x76, 0x33, 0xbe,
  0x23, 0xd9, 0xce, 0xbe, 0x4e, 0x6f, 0x20, 0xbe, 0xf5, 0x15, 0xc6, 0xbe,
  0xaf, 0xf7, 0xc9, 0xbc, 0x53, 0x02, 0xa1, 0x3d, 0x55, 0x75, 0x7d, 0x3e,
  0xef, 0xad, 0x8c, 0x3e, 0xe1, 0x40, 0x3f, 0xbe, 0x3e, 0x57, 0x55, 0x3e,
  0x63, 0xba, 0x74, 0xbe, 0x56, 0xa1, 0x17, 0x3e, 0xb7, 0x64, 0xd7, 0xbe,
  0xab, 0xd2, 0x79, 0x3e, 0x00, 0x79, 0x21, 0xbb, 0xb8, 0x54, 0x8e, 0xbe,
  0xde, 0x50, 0xba, 0xbe, 0xb3, 0xa1, 0x47, 0xbf, 0x81, 0x2e, 0xcf, 0x3e,
  0x85, 0x07, 0xd1, 0xbe, 0xb4, 0x2e, 0x99, 0xbe, 0x77, 0x4a, 0x07, 0x3f,
  0x72, 0xd5, 0x89, 0xbe, 0x19, 0x08, 0x10, 0xbf, 0x7b, 0x0b, 0x8b, 0x3e,
  0xff, 0xce, 0xb9, 0x3e, 0xca, 0xdf, 0x71, 0x3e, 0x9b, 0x9f, 0xbd, 0xbe,
  0x4c, 0x20, 0x34, 0x3d, 0x18, 0x0c, 0x97, 0x3d, 0xb8, 0x8d, 0x67, 0x3d,
  0x62, 0x33, 0x38, 0x3e, 0x5b, 0xcf, 0x80, 0xbe, 0x69, 0x16, 0x9b, 0x3d,
  0x6d, 0x23, 0x8e, 0x3e, 0xf0, 0x39, 0xe8, 0x3e, 0xe2, 0x4c, 0x9c, 0xbe,
  0xee, 0x1b, 0x91, 0xbe, 0x6b, 0x35, 0xca, 0x3e, 0x13, 0xd0, 0xed, 0xbd,
  0x40, 0x44, 0xc1, 0x3c, 0x80, 0x82, 0x22, 0x3c, 0xae, 0xa0, 0x32, 0x3e,
  0xab, 0xb7, 0xae, 0x3e, 0xd9, 0xaa, 0x19, 0xbf, 0x2a, 0x2f, 0x04, 0x3f,
  0xcf, 0x4c, 0xab, 0x3e, 0x44, 0x24, 0xc8, 0xbe, 0xbe, 0x35, 0x26, 0xbf,
  0x1a, 0x33, 0x49, 0x3e, 0xfa, 0x04, 0x61, 0x3e, 0x73, 0xfb, 0x11, 0xbf,
  0xa2, 0x3d, 0xcf, 0x3e, 0xb8, 0x82, 0x81, 0x3f, 0x1c, 0x55, 0xb7, 0x3e,
  0x7f, 0x6c, 0xdb, 0xbe, 0x80, 0x93, 0x3f, 0xbc, 0x1d, 0x2d, 0xa8, 0x3e,
  0x9a, 0x34, 0x85, 0xbe, 0x04, 0xa9, 0xbb, 0x3d, 0x06, 0xeb, 0x10, 0xbf,
  0x3c, 0xd3, 0x84, 0x3d, 0x8b, 0x69, 0xa0, 0x3e, 0xa8, 0x37, 0x00, 0xbd,
  0x70, 0x20, 0xd8, 0xbe, 0xe4, 0x21, 0x96, 0x3d, 0x89, 0x09, 0xc2, 0x3e,
  0xda, 0xbe, 0x0f, 0xbf, 0x40, 0x04, 0xf4, 0xbd, 0x50, 0x7d, 0x12, 0x3f,
  0x99, 0xcd, 0x61, 0xbe, 0x1b, 0xf9, 0x91, 0xbe, 0xba, 0x40, 0x14, 0x3e,
  0x0e, 0x1e, 0x41, 0x3e, 0x2c, 0x17, 0xad, 0x3d, 0x4b, 0xfe, 0x6a, 0xbe,
  0xb6, 0x94, 0x99, 0xbe, 0xd4, 0x27, 0xde, 0x3d, 0xe4, 0xb9, 0xd4, 0xbd,
  0x96, 0x08, 0x1b, 0x3e, 0xda, 0xcc, 0xb5, 0xbe, 0x40, 0x32, 0xb7, 0xbe,
  0x2c, 0xee, 0x28, 0xbe, 0x10, 0x9c, 0x0e, 0x3d, 0x99, 0x07, 0x9a, 0xbe,
  0x10, 0x9e, 0xcb, 0xbc, 0xd8, 0xad, 0x49, 0x3d, 0xc4, 0xe0, 0x33, 0xbe,
  0x9e, 0x54, 0xda, 0xbe, 0x53, 0xf2, 0xd5, 0x3e, 0xfb, 0x71, 0xa7, 0x3e,
  0xf5, 0x68, 0xac, 0x3e, 0x4c, 0x1d, 0x98, 0x3e, 0xce, 0x03, 0x3b, 0xbe,
  0x34, 0x6d, 0xae, 0x3d, 0xd0, 0xa6, 0x31, 0xbe, 0x4b, 0x06, 0xb7, 0xbd,
  0xd1, 0x4c, 0xbd, 0x3e, 0xe0, 0x48, 0x63, 0xbd, 0x99, 0xc0, 0x18, 0xbe,
  0x97, 0x00, 0xa3, 0x3c, 0x34, 0x4d, 0x58, 0x3f, 0xaf, 0x81, 0xbe, 0x3e,
  0x09, 0xfe, 0x37, 0x3d, 0xcc, 0x79, 0x93, 0x3d, 0xf8, 0xa9, 0x73, 0xbe,
  0x80, 0xc7, 0x51, 0x3c, 0xae, 0x10, 0x48, 0x3e, 0x28, 0x25, 0x86, 0x3d,
  0xd8, 0x4b, 0x45, 0xbe, 0x6f, 0x1e, 0xda, 0xbe, 0x91, 0x42, 0x92, 0xbe,
  0x1f, 0x88, 0xb4, 0xbe, 0xfd, 0xee, 0xaf, 0x3e, 0x03, 0x5d, 0x86, 0x3e,
  0x9e, 0x75, 0xa3, 0xbe, 0x8a, 0x30, 0xca, 0xbe, 0x96, 0x3d, 0xa6, 0xbe,
  0xae, 0xf6, 0x19, 0x3e, 0xc4, 0x76, 0xff, 0x3d, 0x61, 0x2b, 0x6b, 0xbe,
  0x88, 0xce, 0x32, 0xbd, 0xf8, 0xdd, 0x0d, 0xbe, 0x5a, 0x20, 0x1e, 0xbe,
  0x3c, 0x08, 0x4e, 0x3e, 0x47, 0xab, 0x1b, 0xbe, 0xab, 0xa7, 0xcf, 0x3e,
  0xa4, 0x7b, 0xab, 0xbd, 0xe6, 0x00, 0x42, 0x3d, 0xf5, 0x2c, 0xb9, 0xbe,
  0xc5, 0xca, 0x4c, 0xbe, 0x81, 0x81, 0x1a, 0x3e, 0x9d, 0xfb, 0x91, 0xbe,
  0x70, 0x3d, 0x47, 0xbd, 0xa9, 0xd8, 0xa4, 0xbe, 0x6e, 0x39, 0x4c, 0x3e,
  0xf3, 0x8d, 0xc0, 0x3e, 0x61, 0xfe, 0x9e, 0x3e, 0x4f, 0x85, 0xb9, 0x3e,
  0x8a, 0x9c, 0x3f, 0x3e, 0x00, 0x00, 0x00, 0x00, 0x06, 0xff, 0xff, 0xff,
  0x04, 0x00, 0x00, 0x00, 0x40, 0x00, 0x00, 0x00, 0x77, 0x75, 0xb4, 0x3e,
  0x79, 0x4c, 0xa1, 0x3e, 0x6e, 0x71, 0x05, 0xbf, 0x91, 0x08, 0x04, 0xbf,
  0x2f, 0x90, 0x99, 0x3e, 0x18, 0x64, 0xcb, 0x3c, 0x48, 0x0d, 0xe5, 0xbe,
  0x72, 0x30, 0x0f, 0x3f, 0xb6, 0x5c, 0x64, 0x3e, 0x2a, 0x8f, 0x07, 0xbe,
  0x1a, 0x88, 0xbb, 0x3e, 0x2a, 0xa7, 0x04, 0x3f, 0x9d, 0x86, 0x17, 0xbf,
  0x90, 0xfe, 0x2f, 0xbe, 0x41, 0xdd, 0x86, 0xbe, 0x02, 0x7f, 0xf6, 0xbe,
  0x00, 0x00, 0x00, 0x00, 0x56, 0xff, 0xff, 0xff, 0x04, 0x00, 0x00, 0x00,
  0x40, 0x00, 0x00, 0x00, 0x24, 0xf0, 0x1b, 0xbe, 0x14, 0x61, 0x58, 0x3e,
  0x00, 0x00, 0x00, 0x00, 0x00, 0x00, 0x00, 0x00, 0x01, 0x23, 0x44, 0xbf,
  0xeb, 0xba, 0xb9, 0x3e, 0x00, 0x00, 0x00, 0x00, 0x42, 0xf9, 0x8a, 0xbe,
  0x22, 0xc6, 0xfa, 0x3e, 0x9c, 0x93, 0x8e, 0x3f, 0x8b, 0x33, 0xaa, 0x3e,
  0xdb, 0x24, 0x45, 0xbf, 0x00, 0x00, 0x00, 0x00, 0x00, 0x00, 0x00, 0x00,
  0x00, 0x00, 0x00, 0x00, 0x00, 0x00, 0x00, 0x00, 0x00, 0x00, 0x00, 0x00,
  0xa6, 0xff, 0xff, 0xff, 0x04, 0x00, 0x00, 0x00, 0x40, 0x00, 0x00, 0x00,
  0x11, 0xea, 0x52, 0x3e, 0xf5, 0x65, 0x65, 0xbe, 0xb0, 0xe0, 0xab, 0xbe,
  0x64, 0x3e, 0x91, 0x3e, 0x00, 0x00, 0x00, 0x00, 0x60, 0x68, 0x0b, 0x3f,
  0x8f, 0xa1, 0x55, 0x3e, 0x5b, 0xe3, 0x6f, 0xbc, 0xa2, 0xb1, 0x81, 0x3e,
  0x8f, 0x78, 0x36, 0xbe, 0xff, 0x81, 0x06, 0x3f, 0x58, 0xab, 0x9d, 0x3e,
  0x00, 0x00, 0x00, 0x00, 0x77, 0x4a, 0x4e, 0x3e, 0x00, 0x00, 0x00, 0x00,
  0x42, 0x1f, 0x9d, 0xbb, 0x00, 0x00, 0x00, 0x00, 0x00, 0x00, 0x00, 0x00,
  0x00, 0x00, 0x00, 0x00, 0x00, 0x00, 0x06, 0x00, 0x08, 0x00, 0x04, 0x00,
  0x06, 0x00, 0x00, 0x00, 0x04, 0x00, 0x00, 0x00, 0x04, 0x00, 0x00, 0x00,
  0x7c, 0x02, 0x71, 0xbe, 0x00, 0x00, 0x00, 0x00, 0x00, 0x00, 0x00, 0x00,
  0x0c, 0xfc, 0xff, 0xff, 0x00, 0x00, 0x00, 0x00, 0x00, 0x00, 0x00, 0x00,
  0x00, 0x00, 0x00, 0x00, 0x1c, 0xfc, 0xff, 0xff, 0x00, 0x00, 0x00, 0x00,
  0x00, 0x00, 0x00, 0x00, 0x0f, 0x00, 0x00, 0x00, 0x4d, 0x4c, 0x49, 0x52,
  0x20, 0x43, 0x6f, 0x6e, 0x76, 0x65, 0x72, 0x74, 0x65, 0x64, 0x2e, 0x00,
  0x01, 0x00, 0x00, 0x00, 0x14, 0x00, 0x00, 0x00, 0x00, 0x00, 0x0e, 0x00,
  0x18, 0x00, 0x04, 0x00, 0x08, 0x00, 0x0c, 0x00, 0x10, 0x00, 0x14, 0x00,
  0x0e, 0x00, 0x00, 0x00, 0x00, 0x01, 0x00, 0x00, 0xf4, 0x00, 0x00, 0x00,
  0xe8, 0x00, 0x00, 0x00, 0x14, 0x00, 0x00, 0x00, 0x04, 0x00, 0x00, 0x00,
  0x04, 0x00, 0x00, 0x00, 0x6d, 0x61, 0x69, 0x6e, 0x00, 0x00, 0x00, 0x00,
  0x03, 0x00, 0x00, 0x00, 0x90, 0x00, 0x00, 0x00, 0x48, 0x00, 0x00, 0x00,
  0x04, 0x00, 0x00, 0x00, 0xce, 0xff, 0xff, 0xff, 0x00, 0x00, 0x00, 0x08,
  0x18, 0x00, 0x00, 0x00, 0x0c, 0x00, 0x00, 0x00, 0x04, 0x00, 0x00, 0x00,
  0x9c, 0xfc, 0xff, 0xff, 0x01, 0x00, 0x00, 0x00, 0x09, 0x00, 0x00, 0x00,
  0x03, 0x00, 0x00, 0x00, 0x08, 0x00, 0x00, 0x00, 0x06, 0x00, 0x00, 0x00,
  0x01, 0x00, 0x00, 0x00, 0x00, 0x00, 0x0e, 0x00, 0x14, 0x00, 0x00, 0x00,
  0x08, 0x00, 0x0c, 0x00, 0x07, 0x00, 0x10, 0x00, 0x0e, 0x00, 0x00, 0x00,
  0x00, 0x00, 0x00, 0x08, 0x1c, 0x00, 0x00, 0x00, 0x10, 0x00, 0x00, 0x00,
  0x04, 0x00, 0x00, 0x00, 0xba, 0xff, 0xff, 0xff, 0x00, 0x00, 0x00, 0x01,
  0x01, 0x00, 0x00, 0x00, 0x08, 0x00, 0x00, 0x00, 0x03, 0x00, 0x00, 0x00,
  0x07, 0x00, 0x00, 0x00, 0x05, 0x00, 0x00, 0x00, 0x02, 0x00, 0x00, 0x00,
  0x00, 0x00, 0x0e, 0x00, 0x16, 0x00, 0x00, 0x00, 0x08, 0x00, 0x0c, 0x00,
  0x07, 0x00, 0x10, 0x00, 0x0e, 0x00, 0x00, 0x00, 0x00, 0x00, 0x00, 0x08,
  0x24, 0x00, 0x00, 0x00, 0x18, 0x00, 0x00, 0x00, 0x0c, 0x00, 0x00, 0x00,
  0x00, 0x00, 0x06, 0x00, 0x08, 0x00, 0x07, 0x00, 0x06, 0x00, 0x00, 0x00,
  0x00, 0x00, 0x00, 0x01, 0x01, 0x00, 0x00, 0x00, 0x07, 0x00, 0x00, 0x00,
  0x03, 0x00, 0x00, 0x00, 0x00, 0x00, 0x00, 0x00, 0x04, 0x00, 0x00, 0x00,
  0x03, 0x00, 0x00, 0x00, 0x01, 0x00, 0x00, 0x00, 0x09, 0x00, 0x00, 0x00,
  0x01, 0x00, 0x00, 0x00, 0x00, 0x00, 0x00, 0x00, 0x0a, 0x00, 0x00, 0x00,
  0x80, 0x02, 0x00, 0x00, 0x34, 0x02, 0x00, 0x00, 0xec, 0x01, 0x00, 0x00,
  0xb4, 0x01, 0x00, 0x00, 0x78, 0x01, 0x00, 0x00, 0x3c, 0x01, 0x00, 0x00,
  0x00, 0x01, 0x00, 0x00, 0xb0, 0x00, 0x00, 0x00, 0x5c, 0x00, 0x00, 0x00,
  0x04, 0x00, 0x00, 0x00, 0xbc, 0xfd, 0xff, 0xff, 0x44, 0x00, 0x00, 0x00,
  0x0a, 0x00, 0x00, 0x00, 0x1c, 0x00, 0x00, 0x00, 0x14, 0x00, 0x00, 0x00,
  0x04, 0x00, 0x00, 0x00, 0x02, 0x00, 0x00, 0x00, 0xff, 0xff, 0xff, 0xff,
  0x01, 0x00, 0x00, 0x00, 0xa8, 0xfd, 0xff, 0xff, 0x19, 0x00, 0x00, 0x00,
  0x53, 0x74, 0x61, 0x74, 0x65, 0x66, 0x75, 0x6c, 0x50, 0x61, 0x72, 0x74,
  0x69, 0x74, 0x69, 0x6f, 0x6e, 0x65, 0x64, 0x43, 0x61, 0x6c, 0x6c, 0x3a,
  0x30, 0x00, 0x00, 0x00, 0x02, 0x00, 0x00, 0x00, 0x01, 0x00, 0x00, 0x00,
  0x01, 0x00, 0x00, 0x00, 0x10, 0xfe, 0xff, 0xff, 0x40, 0x00, 0x00, 0x00,
  0x09, 0x00, 0x00, 0x00, 0x1c, 0x00, 0x00, 0x00, 0x14, 0x00, 0x00, 0x00,
  0x04, 0x00, 0x00, 0x00, 0x02, 0x00, 0x00, 0x00, 0xff, 0xff, 0xff, 0xff,
  0x10, 0x00, 0x00, 0x00, 0xfc, 0xfd, 0xff, 0xff, 0x14, 0x00, 0x00, 0x00,
  0x74, 0x66, 0x6c, 0x2e, 0x66, 0x75, 0x6c, 0x6c, 0x79, 0x5f, 0x63, 0x6f,
  0x6e, 0x6e, 0x65, 0x63, 0x74, 0x65, 0x64, 0x31, 0x00, 0x00, 0x00, 0x00,
  0x02, 0x00, 0x00, 0x00, 0x01, 0x00, 0x00, 0x00, 0x10, 0x00, 0x00, 0x00,
  0x60, 0xfe, 0xff, 0xff, 0x3c, 0x00, 0x00, 0x00, 0x08, 0x00, 0x00, 0x00,
  0x1c, 0x00, 0x00, 0x00, 0x14, 0x00, 0x00, 0x00, 0x04, 0x00, 0x00, 0x00,
  0x02, 0x00, 0x00, 0x00, 0xff, 0xff, 0xff, 0xff, 0x10, 0x00, 0x00, 0x00,
  0x4c, 0xfe, 0xff, 0xff, 0x13, 0x00, 0x00, 0x00, 0x74, 0x66, 0x6c, 0x2e,
  0x66, 0x75, 0x6c, 0x6c, 0x79, 0x5f, 0x63, 0x6f, 0x6e, 0x6e, 0x65, 0x63,
  0x74, 0x65, 0x64, 0x00, 0x02, 0x00, 0x00, 0x00, 0x01, 0x00, 0x00, 0x00,
  0x10, 0x00, 0x00, 0x00, 0xee, 0xfe, 0xff, 0xff, 0x28, 0x00, 0x00, 0x00,
  0x07, 0x00, 0x00, 0x00, 0x0c, 0x00, 0x00, 0x00, 0x04, 0x00, 0x00, 0x00,
  0x88, 0xfe, 0xff, 0xff, 0x0d, 0x00, 0x00, 0x00, 0x73, 0x74, 0x64, 0x2e,
  0x63, 0x6f, 0x6e, 0x73, 0x74, 0x61, 0x6e, 0x74, 0x32, 0x00, 0x00, 0x00,
  0x02, 0x00, 0x00, 0x00, 0x01, 0x00, 0x00, 0x00, 0x10, 0x00, 0x00, 0x00,
  0x26, 0xff, 0xff, 0xff, 0x28, 0x00, 0x00, 0x00, 0x06, 0x00, 0x00, 0x00,
  0x0c, 0x00, 0x00, 0x00, 0x04, 0x00, 0x00, 0x00, 0xc0, 0xfe, 0xff, 0xff,
  0x0d, 0x00, 0x00, 0x00, 0x73, 0x74, 0x64, 0x2e, 0x63, 0x6f, 0x6e, 0x73,
  0x74, 0x61, 0x6e, 0x74, 0x31, 0x00, 0x00, 0x00, 0x02, 0x00, 0x00, 0x00,
  0x10, 0x00, 0x00, 0x00, 0x10, 0x00, 0x00, 0x00, 0x5e, 0xff, 0xff, 0xff,
  0x28, 0x00, 0x00, 0x00, 0x05, 0x00, 0x00, 0x00, 0x0c, 0x00, 0x00, 0x00,
  0x04, 0x00, 0x00, 0x00, 0xf8, 0xfe, 0xff, 0xff, 0x0c, 0x00, 0x00, 0x00,
  0x73, 0x74, 0x64, 0x2e, 0x63, 0x6f, 0x6e, 0x73, 0x74, 0x61, 0x6e, 0x74,
  0x00, 0x00, 0x00, 0x00, 0x02, 0x00, 0x00, 0x00, 0x10, 0x00, 0x00, 0x00,
  0x01, 0x00, 0x00, 0x00, 0x96, 0xff, 0xff, 0xff, 0x28, 0x00, 0x00, 0x00,
  0x04, 0x00, 0x00, 0x00, 0x0c, 0x00, 0x00, 0x00, 0x04, 0x00, 0x00, 0x00,
  0x30, 0xff, 0xff, 0xff, 0x0d, 0x00, 0x00, 0x00, 0x64, 0x65, 0x6e, 0x73,
  0x65, 0x5f, 0x33, 0x31, 0x2f, 0x62, 0x69, 0x61, 0x73, 0x00, 0x00, 0x00,
  0x01, 0x00, 0x00, 0x00, 0x10, 0x00, 0x00, 0x00, 0xca, 0xff, 0xff, 0xff,
  0x28, 0x00, 0x00, 0x00, 0x03, 0x00, 0x00, 0x00, 0x0c, 0x00, 0x00, 0x00,
  0x04, 0x00, 0x00, 0x00, 0x64, 0xff, 0xff, 0xff, 0x0d, 0x00, 0x00, 0x00,
  0x64, 0x65, 0x6e, 0x73, 0x65, 0x5f, 0x33, 0x32, 0x2f, 0x62, 0x69, 0x61,
  0x73, 0x00, 0x00, 0x00, 0x01, 0x00, 0x00, 0x00, 0x10, 0x00, 0x00, 0x00,
  0x00, 0x00, 0x0e, 0x00, 0x14, 0x00, 0x04, 0x00, 0x00, 0x00, 0x08, 0x00,
  0x0c, 0x00, 0x10, 0x00, 0x0e, 0x00, 0x00, 0x00, 0x28, 0x00, 0x00, 0x00,
  0x02, 0x00, 0x00, 0x00, 0x0c, 0x00, 0x00, 0x00, 0x04, 0x00, 0x00, 0x00,
  0xa8, 0xff, 0xff, 0xff, 0x0d, 0x00, 0x00, 0x00, 0x64, 0x65, 0x6e, 0x73,
  0x65, 0x5f, 0x33, 0x33, 0x2f, 0x62, 0x69, 0x61, 0x73, 0x00, 0x00, 0x00,
  0x01, 0x00, 0x00, 0x00, 0x01, 0x00, 0x00, 0x00, 0x14, 0x00, 0x18, 0x00,
  0x04, 0x00, 0x00, 0x00, 0x08, 0x00, 0x0c, 0x00, 0x10, 0x00, 0x00, 0x00,
  0x00, 0x00, 0x14, 0x00, 0x14, 0x00, 0x00, 0x00, 0x50, 0x00, 0x00, 0x00,
  0x01, 0x00, 0x00, 0x00, 0x20, 0x00, 0x00, 0x00, 0x18, 0x00, 0x00, 0x00,
  0x04, 0x00, 0x00, 0x00, 0x02, 0x00, 0x00, 0x00, 0xff, 0xff, 0xff, 0xff,
  0x01, 0x00, 0x00, 0x00, 0x04, 0x00, 0x04, 0x00, 0x04, 0x00, 0x00, 0x00,
  0x20, 0x00, 0x00, 0x00, 0x73, 0x65, 0x72, 0x76, 0x69, 0x6e, 0x67, 0x5f,
  0x64, 0x65, 0x66, 0x61, 0x75, 0x6c, 0x74, 0x5f, 0x64, 0x65, 0x6e, 0x73,
  0x65, 0x5f, 0x33, 0x31, 0x5f, 0x69, 0x6e, 0x70, 0x75, 0x74, 0x3a, 0x30,
  0x00, 0x00, 0x00, 0x00, 0x02, 0x00, 0x00, 0x00, 0x01, 0x00, 0x00, 0x00,
  0x01, 0x00, 0x00, 0x00, 0x01, 0x00, 0x00, 0x00, 0x10, 0x00, 0x00, 0x00,
  0x0c, 0x00, 0x10, 0x00, 0x07, 0x00, 0x00, 0x00, 0x08, 0x00, 0x0c, 0x00,
  0x0c, 0x00, 0x00, 0x00, 0x00, 0x00, 0x00, 0x09, 0x09, 0x00, 0x00, 0x00,
  0x09, 0x00, 0x00, 0x00
};
unsigned int g_model_len = 2896;


*/
/*
 * NN: 30-30 with integer optimization
 *
 */


unsigned char g_model[] = {
  0x20, 0x00, 0x00, 0x00, 0x54, 0x46, 0x4c, 0x33, 0x00, 0x00, 0x00, 0x00,
  0x14, 0x00, 0x20, 0x00, 0x1c, 0x00, 0x18, 0x00, 0x14, 0x00, 0x10, 0x00,
  0x0c, 0x00, 0x00, 0x00, 0x08, 0x00, 0x04, 0x00, 0x14, 0x00, 0x00, 0x00,
  0x1c, 0x00, 0x00, 0x00, 0x9c, 0x00, 0x00, 0x00, 0xcc, 0x00, 0x00, 0x00,
  0x48, 0x04, 0x00, 0x00, 0x58, 0x04, 0x00, 0x00, 0x5c, 0x0a, 0x00, 0x00,
  0x03, 0x00, 0x00, 0x00, 0x01, 0x00, 0x00, 0x00, 0x04, 0x00, 0x00, 0x00,
  0x34, 0xf6, 0xff, 0xff, 0x10, 0x00, 0x00, 0x00, 0x18, 0x00, 0x00, 0x00,
  0x28, 0x00, 0x00, 0x00, 0x48, 0x00, 0x00, 0x00, 0x05, 0x00, 0x00, 0x00,
  0x73, 0x65, 0x72, 0x76, 0x65, 0x00, 0x00, 0x00, 0x0f, 0x00, 0x00, 0x00,
  0x73, 0x65, 0x72, 0x76, 0x69, 0x6e, 0x67, 0x5f, 0x64, 0x65, 0x66, 0x61,
  0x75, 0x6c, 0x74, 0x00, 0x01, 0x00, 0x00, 0x00, 0x04, 0x00, 0x00, 0x00,
  0xb8, 0xff, 0xff, 0xff, 0x09, 0x00, 0x00, 0x00, 0x04, 0x00, 0x00, 0x00,
  0x08, 0x00, 0x00, 0x00, 0x64, 0x65, 0x6e, 0x73, 0x65, 0x5f, 0x32, 0x30,
  0x00, 0x00, 0x00, 0x00, 0x01, 0x00, 0x00, 0x00, 0x04, 0x00, 0x00, 0x00,
  0x4e, 0xfc, 0xff, 0xff, 0x04, 0x00, 0x00, 0x00, 0x0e, 0x00, 0x00, 0x00,
  0x64, 0x65, 0x6e, 0x73, 0x65, 0x5f, 0x31, 0x38, 0x5f, 0x69, 0x6e, 0x70,
  0x75, 0x74, 0x00, 0x00, 0x01, 0x00, 0x00, 0x00, 0x0c, 0x00, 0x00, 0x00,
  0x08, 0x00, 0x0c, 0x00, 0x08, 0x00, 0x04, 0x00, 0x08, 0x00, 0x00, 0x00,
  0x0b, 0x00, 0x00, 0x00, 0x04, 0x00, 0x00, 0x00, 0x13, 0x00, 0x00, 0x00,
  0x6d, 0x69, 0x6e, 0x5f, 0x72, 0x75, 0x6e, 0x74, 0x69, 0x6d, 0x65, 0x5f,
  0x76, 0x65, 0x72, 0x73, 0x69, 0x6f, 0x6e, 0x00, 0x0c, 0x00, 0x00, 0x00,
  0x78, 0x03, 0x00, 0x00, 0x70, 0x03, 0x00, 0x00, 0x5c, 0x03, 0x00, 0x00,
  0x04, 0x03, 0x00, 0x00, 0x7c, 0x02, 0x00, 0x00, 0x4c, 0x02, 0x00, 0x00,
  0x5c, 0x00, 0x00, 0x00, 0x3c, 0x00, 0x00, 0x00, 0x34, 0x00, 0x00, 0x00,
  0x2c, 0x00, 0x00, 0x00, 0x24, 0x00, 0x00, 0x00, 0x04, 0x00, 0x00, 0x00,
  0xd2, 0xfc, 0xff, 0xff, 0x04, 0x00, 0x00, 0x00, 0x10, 0x00, 0x00, 0x00,
  0x31, 0x2e, 0x35, 0x2e, 0x30, 0x00, 0x00, 0x00, 0x00, 0x00, 0x00, 0x00,
  0x00, 0x00, 0x00, 0x00, 0x5c, 0xfc, 0xff, 0xff, 0x60, 0xfc, 0xff, 0xff,
  0x64, 0xfc, 0xff, 0xff, 0xfa, 0xfc, 0xff, 0xff, 0x04, 0x00, 0x00, 0x00,
  0x10, 0x00, 0x00, 0x00, 0x54, 0xd2, 0x8f, 0xf0, 0xf8, 0x5f, 0x98, 0xa0,
  0x12, 0x38, 0xc9, 0x2a, 0x90, 0xb3, 0x81, 0xc2, 0x16, 0xfd, 0xff, 0xff,
  0x04, 0x00, 0x00, 0x00, 0xe0, 0x01, 0x00, 0x00, 0xea, 0x2b, 0x2a, 0xd4,
  0x07, 0xfa, 0xc3, 0xc5, 0x3b, 0x1c, 0x47, 0xec, 0xcf, 0xe4, 0xcc, 0xff,
  0x1f, 0xf1, 0xbf, 0x04, 0x35, 0x38, 0x2e, 0xc5, 0xde, 0xcf, 0xfd, 0x3b,
  0x0e, 0xcd, 0xe9, 0xef, 0xee, 0x0d, 0x4e, 0x12, 0x31, 0x49, 0xc7, 0x3b,
  0xcb, 0x37, 0x35, 0xd6, 0xe3, 0x2b, 0xe6, 0xf3, 0x2b, 0x0e, 0xd3, 0x2d,
  0xe5, 0x3f, 0x34, 0x4f, 0x2a, 0x36, 0xcc, 0xdd, 0x2d, 0xbc, 0xbd, 0xfb,
  0xc5, 0x12, 0x28, 0x2f, 0x87, 0xc3, 0x4f, 0x2e, 0xe3, 0x0d, 0x0f, 0xbe,
  0xe7, 0x47, 0xd4, 0xbe, 0xfe, 0x06, 0x98, 0x33, 0xdf, 0xff, 0xe0, 0xec,
  0x00, 0x30, 0x2b, 0x3d, 0xf5, 0x15, 0xc1, 0xd2, 0x41, 0x1d, 0x16, 0x39,
  0x17, 0xbd, 0x07, 0xe9, 0xca, 0x28, 0x20, 0x30, 0x2b, 0x30, 0x21, 0x13,
  0x10, 0x1b, 0xff, 0xd6, 0x0f, 0x15, 0xfd, 0x11, 0x0f, 0xbf, 0x2c, 0xc8,
  0x40, 0xe2, 0x28, 0x34, 0xd3, 0x1b, 0x09, 0x02, 0xc0, 0x14, 0x13, 0x00,
  0x27, 0x02, 0xdb, 0x14, 0x26, 0x2f, 0x27, 0x16, 0x3d, 0xcc, 0x03, 0x3b,
  0xf2, 0xfd, 0x37, 0xcc, 0xd6, 0xe6, 0xde, 0x43, 0xcf, 0xa6, 0x2b, 0xe1,
  0x32, 0x06, 0xc8, 0xec, 0x08, 0xe2, 0xe5, 0x25, 0xeb, 0xd7, 0x15, 0xf6,
  0x15, 0x11, 0x30, 0xc4, 0x38, 0x12, 0xc5, 0xf9, 0xce, 0xc6, 0x2f, 0x39,
  0x0e, 0x18, 0xff, 0xeb, 0x48, 0x03, 0xf1, 0x0e, 0xd9, 0x38, 0xf4, 0x3d,
  0xc9, 0xfa, 0x26, 0x1e, 0xe0, 0xf6, 0x24, 0x11, 0x10, 0x49, 0xfd, 0x06,
  0xbc, 0x48, 0xe0, 0x15, 0xd9, 0x09, 0x20, 0x0e, 0xed, 0x10, 0xe4, 0xcc,
  0x19, 0x2d, 0xe8, 0xdf, 0xee, 0x37, 0xd6, 0xfb, 0xe7, 0x2c, 0x08, 0xbe,
  0xd8, 0x04, 0xf0, 0x24, 0x35, 0xdc, 0xf7, 0x18, 0x27, 0x39, 0x03, 0x29,
  0x15, 0xcb, 0x10, 0xd6, 0xd5, 0xc7, 0x45, 0xf3, 0xfb, 0xef, 0x1e, 0x3b,
  0x26, 0x35, 0xd1, 0xe5, 0x41, 0x21, 0x0e, 0x04, 0x20, 0xe5, 0x42, 0xcd,
  0x04, 0x1b, 0x31, 0x11, 0x16, 0xd2, 0xba, 0xf2, 0x1f, 0xca, 0xf9, 0xd9,
  0x08, 0xcc, 0x0e, 0xc3, 0xf1, 0x10, 0xfb, 0xf8, 0xcd, 0x0b, 0x1d, 0x10,
  0x1b, 0xf0, 0xf2, 0x37, 0xe8, 0xfe, 0xd1, 0x12, 0xd4, 0x06, 0x05, 0x13,
  0x14, 0xed, 0xd3, 0x34, 0x09, 0x10, 0xed, 0xc6, 0x29, 0xd8, 0xbe, 0xf9,
  0x04, 0xc0, 0xc9, 0x0c, 0x1c, 0xed, 0x18, 0x01, 0xbf, 0x3e, 0xc2, 0x10,
  0x11, 0xcf, 0x1b, 0xdc, 0x08, 0x1f, 0x07, 0x10, 0xc2, 0x00, 0x07, 0xf3,
  0x22, 0x19, 0x06, 0x27, 0x20, 0xd2, 0x1d, 0x10, 0xb9, 0x36, 0x1b, 0xfc,
  0xf2, 0xdd, 0xe7, 0xfc, 0x1a, 0xd3, 0xc8, 0xf9, 0xcf, 0x29, 0xcc, 0xef,
  0x19, 0x36, 0x1f, 0x2a, 0x42, 0xc3, 0xd4, 0xf7, 0x15, 0x0f, 0x25, 0x42,
  0xf6, 0x1f, 0x3f, 0x42, 0x0b, 0xdb, 0x23, 0x3b, 0xcd, 0xcc, 0x02, 0x41,
  0xcb, 0x4b, 0x2d, 0xf9, 0xc1, 0xd8, 0x32, 0xf2, 0x18, 0xed, 0xc3, 0xf4,
  0x40, 0xff, 0x34, 0x03, 0xc2, 0x31, 0xd5, 0xe5, 0xf6, 0xe3, 0x19, 0xe6,
  0x0c, 0xda, 0xcb, 0xf5, 0x14, 0xf8, 0xc2, 0x1e, 0x23, 0x20, 0xe4, 0xd9,
  0x36, 0x3e, 0xe1, 0xbd, 0xda, 0xbc, 0x43, 0x0d, 0xed, 0xe0, 0x34, 0xd0,
  0x31, 0x4b, 0x37, 0x21, 0xd5, 0xd5, 0x81, 0x33, 0xd5, 0xd5, 0xe1, 0xff,
  0x10, 0x04, 0xf4, 0x09, 0xd2, 0x3d, 0x02, 0x13, 0x05, 0x1b, 0x28, 0xf6,
  0x1f, 0xf6, 0x07, 0xfc, 0xcd, 0x07, 0x2b, 0xc1, 0xff, 0xd4, 0x40, 0x33,
  0x2e, 0x10, 0xe5, 0xd2, 0xec, 0x14, 0xf6, 0xe7, 0x02, 0xff, 0xff, 0xff,
  0x04, 0x00, 0x00, 0x00, 0x1e, 0x00, 0x00, 0x00, 0x78, 0x9d, 0xa7, 0xcb,
  0x47, 0xe9, 0x21, 0x16, 0x53, 0x16, 0x1c, 0xfb, 0xd2, 0xee, 0x5d, 0x74,
  0xd5, 0x09, 0x51, 0xb0, 0x7c, 0x56, 0x6b, 0xb8, 0xe8, 0x72, 0x7f, 0xa8,
  0xa7, 0x18, 0x00, 0x00, 0x2e, 0xff, 0xff, 0xff, 0x04, 0x00, 0x00, 0x00,
  0x78, 0x00, 0x00, 0x00, 0x55, 0x06, 0x00, 0x00, 0x00, 0x00, 0x00, 0x00,
  0x00, 0x00, 0x00, 0x00, 0x00, 0x00, 0x00, 0x00, 0x41, 0xf9, 0xff, 0xff,
  0x00, 0x00, 0x00, 0x00, 0xa4, 0xf9, 0xff, 0xff, 0xc0, 0xfb, 0xff, 0xff,
  0x00, 0x00, 0x00, 0x00, 0x08, 0x00, 0x00, 0x00, 0xea, 0x06, 0x00, 0x00,
  0x00, 0x00, 0x00, 0x00, 0x00, 0x00, 0x00, 0x00, 0x00, 0x00, 0x00, 0x00,
  0x44, 0x05, 0x00, 0x00, 0x9d, 0xf9, 0xff, 0xff, 0x00, 0x00, 0x00, 0x00,
  0x9d, 0x09, 0x00, 0x00, 0xf7, 0xf8, 0xff, 0xff, 0x00, 0x00, 0x00, 0x00,
  0xaf, 0x04, 0x00, 0x00, 0x70, 0x05, 0x00, 0x00, 0xfb, 0xff, 0xff, 0xff,
  0x00, 0x00, 0x00, 0x00, 0x00, 0x00, 0x00, 0x00, 0xc5, 0xf8, 0xff, 0xff,
  0x4b, 0x06, 0x00, 0x00, 0x00, 0x00, 0x00, 0x00, 0x00, 0x00, 0x00, 0x00,
  0x3c, 0xfb, 0xff, 0xff, 0xb2, 0xff, 0xff, 0xff, 0x04, 0x00, 0x00, 0x00,
  0x40, 0x00, 0x00, 0x00, 0x9e, 0x0a, 0x00, 0x00, 0x67, 0xfc, 0xff, 0xff,
  0x42, 0x11, 0x00, 0x00, 0x5e, 0xf2, 0xff, 0xff, 0x88, 0xf2, 0xff, 0xff,
  0xab, 0x0a, 0x00, 0x00, 0x6a, 0xf7, 0xff, 0xff, 0x00, 0x00, 0x00, 0x00,
  0x0c, 0x0a, 0x00, 0x00, 0x72, 0x0a, 0x00, 0x00, 0x00, 0x00, 0x00, 0x00,
  0x1a, 0x0c, 0x00, 0x00, 0xf4, 0xf6, 0xff, 0xff, 0x1d, 0xf7, 0xff, 0xff,
  0xf2, 0x14, 0x00, 0x00, 0xab, 0xf5, 0xff, 0xff, 0x00, 0x00, 0x06, 0x00,
  0x08, 0x00, 0x04, 0x00, 0x06, 0x00, 0x00, 0x00, 0x04, 0x00, 0x00, 0x00,
  0x04, 0x00, 0x00, 0x00, 0x26, 0x08, 0x00, 0x00, 0x84, 0xff, 0xff, 0xff,
  0x88, 0xff, 0xff, 0xff, 0x0f, 0x00, 0x00, 0x00, 0x4d, 0x4c, 0x49, 0x52,
  0x20, 0x43, 0x6f, 0x6e, 0x76, 0x65, 0x72, 0x74, 0x65, 0x64, 0x2e, 0x00,
  0x01, 0x00, 0x00, 0x00, 0x14, 0x00, 0x00, 0x00, 0x00, 0x00, 0x0e, 0x00,
  0x18, 0x00, 0x14, 0x00, 0x10, 0x00, 0x0c, 0x00, 0x08, 0x00, 0x04, 0x00,
  0x0e, 0x00, 0x00, 0x00, 0x14, 0x00, 0x00, 0x00, 0x1c, 0x00, 0x00, 0x00,
  0xdc, 0x00, 0x00, 0x00, 0xe0, 0x00, 0x00, 0x00, 0xe4, 0x00, 0x00, 0x00,
  0x04, 0x00, 0x00, 0x00, 0x6d, 0x61, 0x69, 0x6e, 0x00, 0x00, 0x00, 0x00,
  0x03, 0x00, 0x00, 0x00, 0x84, 0x00, 0x00, 0x00, 0x3c, 0x00, 0x00, 0x00,
  0x04, 0x00, 0x00, 0x00, 0x96, 0xff, 0xff, 0xff, 0x14, 0x00, 0x00, 0x00,
  0x00, 0x00, 0x00, 0x08, 0x10, 0x00, 0x00, 0x00, 0x14, 0x00, 0x00, 0x00,
  0x04, 0x00, 0x04, 0x00, 0x04, 0x00, 0x00, 0x00, 0x01, 0x00, 0x00, 0x00,
  0x09, 0x00, 0x00, 0x00, 0x03, 0x00, 0x00, 0x00, 0x08, 0x00, 0x00, 0x00,
  0x06, 0x00, 0x00, 0x00, 0x01, 0x00, 0x00, 0x00, 0xca, 0xff, 0xff, 0xff,
  0x10, 0x00, 0x00, 0x00, 0x00, 0x00, 0x00, 0x08, 0x10, 0x00, 0x00, 0x00,
  0x14, 0x00, 0x00, 0x00, 0xba, 0xff, 0xff, 0xff, 0x00, 0x00, 0x00, 0x01,
  0x01, 0x00, 0x00, 0x00, 0x08, 0x00, 0x00, 0x00, 0x03, 0x00, 0x00, 0x00,
  0x07, 0x00, 0x00, 0x00, 0x05, 0x00, 0x00, 0x00, 0x02, 0x00, 0x00, 0x00,
  0x00, 0x00, 0x0e, 0x00, 0x16, 0x00, 0x00, 0x00, 0x10, 0x00, 0x0c, 0x00,
  0x0b, 0x00, 0x04, 0x00, 0x0e, 0x00, 0x00, 0x00, 0x18, 0x00, 0x00, 0x00,
  0x00, 0x00, 0x00, 0x08, 0x18, 0x00, 0x00, 0x00, 0x1c, 0x00, 0x00, 0x00,
  0x00, 0x00, 0x06, 0x00, 0x08, 0x00, 0x07, 0x00, 0x06, 0x00, 0x00, 0x00,
  0x00, 0x00, 0x00, 0x01, 0x01, 0x00, 0x00, 0x00, 0x07, 0x00, 0x00, 0x00,
  0x03, 0x00, 0x00, 0x00, 0x00, 0x00, 0x00, 0x00, 0x04, 0x00, 0x00, 0x00,
  0x03, 0x00, 0x00, 0x00, 0x01, 0x00, 0x00, 0x00, 0x09, 0x00, 0x00, 0x00,
  0x01, 0x00, 0x00, 0x00, 0x00, 0x00, 0x00, 0x00, 0x0a, 0x00, 0x00, 0x00,
  0x4c, 0x04, 0x00, 0x00, 0xd0, 0x03, 0x00, 0x00, 0x68, 0x03, 0x00, 0x00,
  0x0c, 0x03, 0x00, 0x00, 0x98, 0x02, 0x00, 0x00, 0x24, 0x02, 0x00, 0x00,
  0xb0, 0x01, 0x00, 0x00, 0x24, 0x01, 0x00, 0x00, 0x98, 0x00, 0x00, 0x00,
  0x04, 0x00, 0x00, 0x00, 0xf0, 0xfb, 0xff, 0xff, 0x18, 0x00, 0x00, 0x00,
  0x20, 0x00, 0x00, 0x00, 0x54, 0x00, 0x00, 0x00, 0x0a, 0x00, 0x00, 0x00,
  0x00, 0x00, 0x00, 0x09, 0x6c, 0x00, 0x00, 0x00, 0x02, 0x00, 0x00, 0x00,
  0xff, 0xff, 0xff, 0xff, 0x01, 0x00, 0x00, 0x00, 0xdc, 0xfb, 0xff, 0xff,
  0x10, 0x00, 0x00, 0x00, 0x18, 0x00, 0x00, 0x00, 0x1c, 0x00, 0x00, 0x00,
  0x20, 0x00, 0x00, 0x00, 0x01, 0x00, 0x00, 0x00, 0x0f, 0x00, 0x00, 0x00,
  0x00, 0x00, 0x00, 0x00, 0x01, 0x00, 0x00, 0x00, 0x00, 0xf4, 0x03, 0x3c,
  0x01, 0x00, 0x00, 0x00, 0xee, 0x61, 0x67, 0x3f, 0x01, 0x00, 0x00, 0x00,
  0x22, 0x2f, 0x93, 0xbf, 0x1e, 0x00, 0x00, 0x00, 0x53, 0x74, 0x61, 0x74,
  0x65, 0x66, 0x75, 0x6c, 0x50, 0x61, 0x72, 0x74, 0x69, 0x74, 0x69, 0x6f,
  0x6e, 0x65, 0x64, 0x43, 0x61, 0x6c, 0x6c, 0x3a, 0x30, 0x5f, 0x69, 0x6e,
  0x74, 0x38, 0x00, 0x00, 0x02, 0x00, 0x00, 0x00, 0x01, 0x00, 0x00, 0x00,
  0x01, 0x00, 0x00, 0x00, 0x80, 0xfc, 0xff, 0xff, 0x18, 0x00, 0x00, 0x00,
  0x20, 0x00, 0x00, 0x00, 0x54, 0x00, 0x00, 0x00, 0x09, 0x00, 0x00, 0x00,
  0x00, 0x00, 0x00, 0x09, 0x64, 0x00, 0x00, 0x00, 0x02, 0x00, 0x00, 0x00,
  0xff, 0xff, 0xff, 0xff, 0x10, 0x00, 0x00, 0x00, 0x6c, 0xfc, 0xff, 0xff,
  0x10, 0x00, 0x00, 0x00, 0x18, 0x00, 0x00, 0x00, 0x1c, 0x00, 0x00, 0x00,
  0x20, 0x00, 0x00, 0x00, 0x01, 0x00, 0x00, 0x00, 0x80, 0xff, 0xff, 0xff,
  0xff, 0xff, 0xff, 0xff, 0x01, 0x00, 0x00, 0x00, 0xae, 0xc3, 0x52, 0x3c,
  0x01, 0x00, 0x00, 0x00, 0xea, 0xf0, 0x51, 0x40, 0x01, 0x00, 0x00, 0x00,
  0x00, 0x00, 0x00, 0x00, 0x14, 0x00, 0x00, 0x00, 0x74, 0x66, 0x6c, 0x2e,
  0x66, 0x75, 0x6c, 0x6c, 0x79, 0x5f, 0x63, 0x6f, 0x6e, 0x6e, 0x65, 0x63,
  0x74, 0x65, 0x64, 0x31, 0x00, 0x00, 0x00, 0x00, 0x02, 0x00, 0x00, 0x00,
  0x01, 0x00, 0x00, 0x00, 0x10, 0x00, 0x00, 0x00, 0x08, 0xfd, 0xff, 0xff,
  0x18, 0x00, 0x00, 0x00, 0x20, 0x00, 0x00, 0x00, 0x58, 0x00, 0x00, 0x00,
  0x08, 0x00, 0x00, 0x00, 0x00, 0x00, 0x00, 0x09, 0x64, 0x00, 0x00, 0x00,
  0x02, 0x00, 0x00, 0x00, 0xff, 0xff, 0xff, 0xff, 0x1e, 0x00, 0x00, 0x00,
  0xf4, 0xfc, 0xff, 0xff, 0x10, 0x00, 0x00, 0x00, 0x1c, 0x00, 0x00, 0x00,
  0x20, 0x00, 0x00, 0x00, 0x24, 0x00, 0x00, 0x00, 0x01, 0x00, 0x00, 0x00,
  0x80, 0xff, 0xff, 0xff, 0xff, 0xff, 0xff, 0xff, 0x00, 0x00, 0x00, 0x00,
  0x01, 0x00, 0x00, 0x00, 0x6b, 0xdd, 0x2b, 0x3c, 0x01, 0x00, 0x00, 0x00,
  0x8e, 0x31, 0x2b, 0x40, 0x01, 0x00, 0x00, 0x00, 0x00, 0x00, 0x00, 0x00,
  0x13, 0x00, 0x00, 0x00, 0x74, 0x66, 0x6c, 0x2e, 0x66, 0x75, 0x6c, 0x6c,
  0x79, 0x5f, 0x63, 0x6f, 0x6e, 0x6e, 0x65, 0x63, 0x74, 0x65, 0x64, 0x00,
  0x02, 0x00, 0x00, 0x00, 0x01, 0x00, 0x00, 0x00, 0x1e, 0x00, 0x00, 0x00,
  0x02, 0xfe, 0xff, 0xff, 0x14, 0x00, 0x00, 0x00, 0x48, 0x00, 0x00, 0x00,
  0x07, 0x00, 0x00, 0x00, 0x00, 0x00, 0x00, 0x09, 0x50, 0x00, 0x00, 0x00,
  0x6c, 0xfd, 0xff, 0xff, 0x10, 0x00, 0x00, 0x00, 0x18, 0x00, 0x00, 0x00,
  0x1c, 0x00, 0x00, 0x00, 0x20, 0x00, 0x00, 0x00, 0x01, 0x00, 0x00, 0x00,
  0x00, 0x00, 0x00, 0x00, 0x00, 0x00, 0x00, 0x00, 0x01, 0x00, 0x00, 0x00,
  0xdc, 0xd1, 0xb5, 0x3b, 0x01, 0x00, 0x00, 0x00, 0x6e, 0x66, 0x06, 0x3f,
  0x01, 0x00, 0x00, 0x00, 0x38, 0x66, 0x34, 0xbf, 0x0d, 0x00, 0x00, 0x00,
  0x73, 0x74, 0x64, 0x2e, 0x63, 0x6f, 0x6e, 0x73, 0x74, 0x61, 0x6e, 0x74,
  0x32, 0x00, 0x00, 0x00, 0x02, 0x00, 0x00, 0x00, 0x01, 0x00, 0x00, 0x00,
  0x10, 0x00, 0x00, 0x00, 0x72, 0xfe, 0xff, 0xff, 0x14, 0x00, 0x00, 0x00,
  0x48, 0x00, 0x00, 0x00, 0x06, 0x00, 0x00, 0x00, 0x00, 0x00, 0x00, 0x09,
  0x50, 0x00, 0x00, 0x00, 0xdc, 0xfd, 0xff, 0xff, 0x10, 0x00, 0x00, 0x00,
  0x18, 0x00, 0x00, 0x00, 0x1c, 0x00, 0x00, 0x00, 0x20, 0x00, 0x00, 0x00,
  0x01, 0x00, 0x00, 0x00, 0x00, 0x00, 0x00, 0x00, 0x00, 0x00, 0x00, 0x00,
  0x01, 0x00, 0x00, 0x00, 0xab, 0xe3, 0xab, 0x3b, 0x01, 0x00, 0x00, 0x00,
  0xcd, 0x13, 0xd5, 0x3e, 0x01, 0x00, 0x00, 0x00, 0xe4, 0x8b, 0x2a, 0xbf,
  0x0d, 0x00, 0x00, 0x00, 0x73, 0x74, 0x64, 0x2e, 0x63, 0x6f, 0x6e, 0x73,
  0x74, 0x61, 0x6e, 0x74, 0x31, 0x00, 0x00, 0x00, 0x02, 0x00, 0x00, 0x00,
  0x10, 0x00, 0x00, 0x00, 0x1e, 0x00, 0x00, 0x00, 0xe2, 0xfe, 0xff, 0xff,
  0x14, 0x00, 0x00, 0x00, 0x48, 0x00, 0x00, 0x00, 0x05, 0x00, 0x00, 0x00,
  0x00, 0x00, 0x00, 0x09, 0x50, 0x00, 0x00, 0x00, 0x4c, 0xfe, 0xff, 0xff,
  0x10, 0x00, 0x00, 0x00, 0x18, 0x00, 0x00, 0x00, 0x1c, 0x00, 0x00, 0x00,
  0x20, 0x00, 0x00, 0x00, 0x01, 0x00, 0x00, 0x00, 0x00, 0x00, 0x00, 0x00,
  0x00, 0x00, 0x00, 0x00, 0x01, 0x00, 0x00, 0x00, 0x51, 0xd7, 0x51, 0x3b,
  0x01, 0x00, 0x00, 0x00, 0xa2, 0x33, 0xd0, 0x3e, 0x01, 0x00, 0x00, 0x00,
  0xf8, 0x16, 0xa3, 0xbe, 0x0c, 0x00, 0x00, 0x00, 0x73, 0x74, 0x64, 0x2e,
  0x63, 0x6f, 0x6e, 0x73, 0x74, 0x61, 0x6e, 0x74, 0x00, 0x00, 0x00, 0x00,
  0x02, 0x00, 0x00, 0x00, 0x1e, 0x00, 0x00, 0x00, 0x01, 0x00, 0x00, 0x00,
  0x52, 0xff, 0xff, 0xff, 0x14, 0x00, 0x00, 0x00, 0x34, 0x00, 0x00, 0x00,
  0x04, 0x00, 0x00, 0x00, 0x00, 0x00, 0x00, 0x02, 0x3c, 0x00, 0x00, 0x00,
  0x44, 0xff, 0xff, 0xff, 0x08, 0x00, 0x00, 0x00, 0x14, 0x00, 0x00, 0x00,
  0x01, 0x00, 0x00, 0x00, 0x00, 0x00, 0x00, 0x00, 0x00, 0x00, 0x00, 0x00,
  0x00, 0x00, 0x00, 0x00, 0x01, 0x00, 0x00, 0x00, 0x1c, 0x03, 0xa5, 0x38,
  0x0d, 0x00, 0x00, 0x00, 0x64, 0x65, 0x6e, 0x73, 0x65, 0x5f, 0x31, 0x38,
  0x2f, 0x62, 0x69, 0x61, 0x73, 0x00, 0x00, 0x00, 0x01, 0x00, 0x00, 0x00,
  0x1e, 0x00, 0x00, 0x00, 0xaa, 0xff, 0xff, 0xff, 0x14, 0x00, 0x00, 0x00,
  0x30, 0x00, 0x00, 0x00, 0x03, 0x00, 0x00, 0x00, 0x00, 0x00, 0x00, 0x02,
  0x38, 0x00, 0x00, 0x00, 0x9c, 0xff, 0xff, 0xff, 0x08, 0x00, 0x00, 0x00,
  0x10, 0x00, 0x00, 0x00, 0x01, 0x00, 0x00, 0x00, 0x00, 0x00, 0x00, 0x00,
  0x00, 0x00, 0x00, 0x00, 0x01, 0x00, 0x00, 0x00, 0x7d, 0xcb, 0x66, 0x38,
  0x0d, 0x00, 0x00, 0x00, 0x64, 0x65, 0x6e, 0x73, 0x65, 0x5f, 0x31, 0x39,
  0x2f, 0x62, 0x69, 0x61, 0x73, 0x00, 0x00, 0x00, 0x01, 0x00, 0x00, 0x00,
  0x10, 0x00, 0x00, 0x00, 0x00, 0x00, 0x0e, 0x00, 0x18, 0x00, 0x14, 0x00,
  0x13, 0x00, 0x0c, 0x00, 0x08, 0x00, 0x04, 0x00, 0x0e, 0x00, 0x00, 0x00,
  0x20, 0x00, 0x00, 0x00, 0x40, 0x00, 0x00, 0x00, 0x02, 0x00, 0x00, 0x00,
  0x00, 0x00, 0x00, 0x02, 0x48, 0x00, 0x00, 0x00, 0x0c, 0x00, 0x0c, 0x00,
  0x00, 0x00, 0x00, 0x00, 0x08, 0x00, 0x04, 0x00, 0x0c, 0x00, 0x00, 0x00,
  0x08, 0x00, 0x00, 0x00, 0x14, 0x00, 0x00, 0x00, 0x01, 0x00, 0x00, 0x00,
  0x00, 0x00, 0x00, 0x00, 0x00, 0x00, 0x00, 0x00, 0x00, 0x00, 0x00, 0x00,
  0x01, 0x00, 0x00, 0x00, 0x21, 0xb1, 0x95, 0x38, 0x0d, 0x00, 0x00, 0x00,
  0x64, 0x65, 0x6e, 0x73, 0x65, 0x5f, 0x32, 0x30, 0x2f, 0x62, 0x69, 0x61,
  0x73, 0x00, 0x00, 0x00, 0x01, 0x00, 0x00, 0x00, 0x01, 0x00, 0x00, 0x00,
  0x14, 0x00, 0x1c, 0x00, 0x18, 0x00, 0x17, 0x00, 0x10, 0x00, 0x0c, 0x00,
  0x08, 0x00, 0x00, 0x00, 0x00, 0x00, 0x04, 0x00, 0x14, 0x00, 0x00, 0x00,
  0x18, 0x00, 0x00, 0x00, 0x2c, 0x00, 0x00, 0x00, 0x64, 0x00, 0x00, 0x00,
  0x01, 0x00, 0x00, 0x00, 0x00, 0x00, 0x00, 0x09, 0x84, 0x00, 0x00, 0x00,
  0x02, 0x00, 0x00, 0x00, 0xff, 0xff, 0xff, 0xff, 0x01, 0x00, 0x00, 0x00,
  0x0c, 0x00, 0x14, 0x00, 0x10, 0x00, 0x0c, 0x00, 0x08, 0x00, 0x04, 0x00,
  0x0c, 0x00, 0x00, 0x00, 0x10, 0x00, 0x00, 0x00, 0x1c, 0x00, 0x00, 0x00,
  0x20, 0x00, 0x00, 0x00, 0x24, 0x00, 0x00, 0x00, 0x01, 0x00, 0x00, 0x00,
  0x80, 0xff, 0xff, 0xff, 0xff, 0xff, 0xff, 0xff, 0x00, 0x00, 0x00, 0x00,
  0x01, 0x00, 0x00, 0x00, 0x5d, 0x4f, 0xc9, 0x3c, 0x01, 0x00, 0x00, 0x00,
  0x0e, 0x86, 0xc8, 0x40, 0x01, 0x00, 0x00, 0x00, 0x00, 0x00, 0x00, 0x00,
  0x25, 0x00, 0x00, 0x00, 0x73, 0x65, 0x72, 0x76, 0x69, 0x6e, 0x67, 0x5f,
  0x64, 0x65, 0x66, 0x61, 0x75, 0x6c, 0x74, 0x5f, 0x64, 0x65, 0x6e, 0x73,
  0x65, 0x5f, 0x31, 0x38, 0x5f, 0x69, 0x6e, 0x70, 0x75, 0x74, 0x3a, 0x30,
  0x5f, 0x69, 0x6e, 0x74, 0x38, 0x00, 0x00, 0x00, 0x02, 0x00, 0x00, 0x00,
  0x01, 0x00, 0x00, 0x00, 0x01, 0x00, 0x00, 0x00, 0x03, 0x00, 0x00, 0x00,
  0x40, 0x00, 0x00, 0x00, 0x24, 0x00, 0x00, 0x00, 0x04, 0x00, 0x00, 0x00,
  0xd8, 0xff, 0xff, 0xff, 0x06, 0x00, 0x00, 0x00, 0x02, 0x00, 0x00, 0x00,
  0x00, 0x00, 0x00, 0x06, 0x0c, 0x00, 0x0c, 0x00, 0x0b, 0x00, 0x00, 0x00,
  0x00, 0x00, 0x04, 0x00, 0x0c, 0x00, 0x00, 0x00, 0x72, 0x00, 0x00, 0x00,
  0x00, 0x00, 0x00, 0x72, 0x0c, 0x00, 0x10, 0x00, 0x0f, 0x00, 0x00, 0x00,
  0x08, 0x00, 0x04, 0x00, 0x0c, 0x00, 0x00, 0x00, 0x09, 0x00, 0x00, 0x00,
  0x04, 0x00, 0x00, 0x00, 0x00, 0x00, 0x00, 0x09
};
unsigned int g_model_len = 2792;



/*
 * NN: 40-40: with integer optimization
 */

/*
unsigned char g_model[] = {
  0x1c, 0x00, 0x00, 0x00, 0x54, 0x46, 0x4c, 0x33, 0x14, 0x00, 0x20, 0x00,
  0x1c, 0x00, 0x18, 0x00, 0x14, 0x00, 0x10, 0x00, 0x0c, 0x00, 0x00, 0x00,
  0x08, 0x00, 0x04, 0x00, 0x14, 0x00, 0x00, 0x00, 0x1c, 0x00, 0x00, 0x00,
  0x98, 0x00, 0x00, 0x00, 0xc8, 0x00, 0x00, 0x00, 0x4c, 0x09, 0x00, 0x00,
  0x5c, 0x09, 0x00, 0x00, 0x60, 0x0f, 0x00, 0x00, 0x03, 0x00, 0x00, 0x00,
  0x01, 0x00, 0x00, 0x00, 0x04, 0x00, 0x00, 0x00, 0x30, 0xf1, 0xff, 0xff,
  0x10, 0x00, 0x00, 0x00, 0x18, 0x00, 0x00, 0x00, 0x28, 0x00, 0x00, 0x00,
  0x44, 0x00, 0x00, 0x00, 0x05, 0x00, 0x00, 0x00, 0x73, 0x65, 0x72, 0x76,
  0x65, 0x00, 0x00, 0x00, 0x0f, 0x00, 0x00, 0x00, 0x73, 0x65, 0x72, 0x76,
  0x69, 0x6e, 0x67, 0x5f, 0x64, 0x65, 0x66, 0x61, 0x75, 0x6c, 0x74, 0x00,
  0x01, 0x00, 0x00, 0x00, 0x04, 0x00, 0x00, 0x00, 0xbc, 0xff, 0xff, 0xff,
  0x09, 0x00, 0x00, 0x00, 0x04, 0x00, 0x00, 0x00, 0x07, 0x00, 0x00, 0x00,
  0x64, 0x65, 0x6e, 0x73, 0x65, 0x5f, 0x35, 0x00, 0x01, 0x00, 0x00, 0x00,
  0x04, 0x00, 0x00, 0x00, 0x46, 0xf7, 0xff, 0xff, 0x04, 0x00, 0x00, 0x00,
  0x0d, 0x00, 0x00, 0x00, 0x64, 0x65, 0x6e, 0x73, 0x65, 0x5f, 0x33, 0x5f,
  0x69, 0x6e, 0x70, 0x75, 0x74, 0x00, 0x00, 0x00, 0x01, 0x00, 0x00, 0x00,
  0x0c, 0x00, 0x00, 0x00, 0x08, 0x00, 0x0c, 0x00, 0x08, 0x00, 0x04, 0x00,
  0x08, 0x00, 0x00, 0x00, 0x0b, 0x00, 0x00, 0x00, 0x04, 0x00, 0x00, 0x00,
  0x13, 0x00, 0x00, 0x00, 0x6d, 0x69, 0x6e, 0x5f, 0x72, 0x75, 0x6e, 0x74,
  0x69, 0x6d, 0x65, 0x5f, 0x76, 0x65, 0x72, 0x73, 0x69, 0x6f, 0x6e, 0x00,
  0x0c, 0x00, 0x00, 0x00, 0x80, 0x08, 0x00, 0x00, 0x78, 0x08, 0x00, 0x00,
  0x64, 0x08, 0x00, 0x00, 0xac, 0x07, 0x00, 0x00, 0xfc, 0x06, 0x00, 0x00,
  0xc4, 0x06, 0x00, 0x00, 0x74, 0x00, 0x00, 0x00, 0x3c, 0x00, 0x00, 0x00,
  0x34, 0x00, 0x00, 0x00, 0x2c, 0x00, 0x00, 0x00, 0x24, 0x00, 0x00, 0x00,
  0x04, 0x00, 0x00, 0x00, 0xca, 0xf7, 0xff, 0xff, 0x04, 0x00, 0x00, 0x00,
  0x10, 0x00, 0x00, 0x00, 0x31, 0x2e, 0x35, 0x2e, 0x30, 0x00, 0x00, 0x00,
  0x00, 0x00, 0x00, 0x00, 0x00, 0x00, 0x00, 0x00, 0x54, 0xf7, 0xff, 0xff,
  0x58, 0xf7, 0xff, 0xff, 0x5c, 0xf7, 0xff, 0xff, 0xf2, 0xf7, 0xff, 0xff,
  0x04, 0x00, 0x00, 0x00, 0x28, 0x00, 0x00, 0x00, 0xc2, 0x25, 0x0d, 0xef,
  0x29, 0x0d, 0xd4, 0xe1, 0xe6, 0x7f, 0x18, 0x17, 0x0b, 0x16, 0xe2, 0xf4,
  0x0d, 0xe7, 0x1a, 0x1a, 0x1a, 0xea, 0x00, 0xd8, 0xe8, 0xb2, 0xe6, 0x1b,
  0x0e, 0x1a, 0x28, 0xc7, 0xf4, 0x32, 0xe5, 0x11, 0xbd, 0x27, 0xea, 0x0f,
  0x26, 0xf8, 0xff, 0xff, 0x04, 0x00, 0x00, 0x00, 0x40, 0x06, 0x00, 0x00,
  0x0e, 0x06, 0xf3, 0xb6, 0x33, 0xe1, 0xf7, 0x31, 0x06, 0xed, 0xe1, 0x02,
  0xf5, 0xf6, 0xd8, 0x18, 0xf3, 0xfa, 0xeb, 0x18, 0x03, 0xe2, 0xe0, 0x19,
  0xe3, 0xfd, 0xe2, 0x10, 0xe5, 0x06, 0x1a, 0xec, 0xfa, 0xe0, 0xf8, 0x10,
  0xf4, 0xf5, 0xfa, 0x1c, 0xea, 0xf4, 0x10, 0xee, 0xe0, 0xef, 0xf6, 0xd4,
  0xe4, 0x17, 0x1a, 0xf3, 0xff, 0x16, 0x28, 0x1c, 0x0b, 0x05, 0x0c, 0x11,
  0x12, 0xf4, 0xf3, 0x04, 0x10, 0xf5, 0x36, 0x14, 0xf8, 0x06, 0xff, 0x02,
  0x16, 0x1b, 0x05, 0x0e, 0xff, 0xe2, 0xf5, 0xeb, 0xe5, 0x0a, 0xf9, 0x0f,
  0x04, 0xed, 0xe8, 0x0e, 0x00, 0x11, 0x03, 0x18, 0x15, 0xe5, 0x03, 0x19,
  0xfd, 0xf5, 0xee, 0xe2, 0xfc, 0xf8, 0xea, 0xed, 0xf1, 0xe8, 0x01, 0x04,
  0x04, 0xf3, 0x00, 0x1b, 0xe8, 0xf0, 0x1a, 0x03, 0x0e, 0xf5, 0xe5, 0xea,
  0xed, 0xe5, 0xf5, 0x17, 0xf3, 0x11, 0x07, 0xef, 0x1e, 0x16, 0x18, 0xed,
  0x1e, 0xdd, 0x03, 0xe9, 0xe7, 0xf7, 0xf6, 0xf1, 0xe8, 0x11, 0x1d, 0x15,
  0xf8, 0x0b, 0xeb, 0x0c, 0x1c, 0x0f, 0x08, 0xf8, 0xf3, 0x17, 0x08, 0xe3,
  0x13, 0x06, 0x08, 0x19, 0x12, 0xec, 0x0b, 0x24, 0xe9, 0x11, 0xf4, 0xd0,
  0xfa, 0x10, 0x13, 0xfb, 0xe9, 0x61, 0x16, 0x01, 0xf5, 0xf4, 0xca, 0xe1,
  0xf4, 0xf9, 0x19, 0x13, 0xfe, 0xe9, 0x40, 0x42, 0xfb, 0x16, 0xf8, 0xf5,
  0x1e, 0xef, 0xea, 0x01, 0x10, 0xff, 0xfa, 0x11, 0x0d, 0x14, 0x1c, 0x17,
  0xe8, 0x0b, 0xfd, 0x12, 0x19, 0xe5, 0x00, 0x1d, 0x1d, 0x25, 0x24, 0xe3,
  0x11, 0xf4, 0x13, 0x0b, 0xeb, 0xf3, 0x10, 0xf7, 0x14, 0x0f, 0x0b, 0x00,
  0xf2, 0x11, 0x1d, 0x09, 0xea, 0x10, 0xfc, 0x02, 0x11, 0xf4, 0x0e, 0x17,
  0xfa, 0x19, 0x0f, 0x00, 0xf9, 0xe7, 0x06, 0x1c, 0x06, 0x20, 0xe3, 0xfa,
  0xf6, 0xdc, 0xfb, 0x04, 0x1d, 0xec, 0x25, 0x1a, 0x12, 0xfd, 0xe6, 0xf6,
  0x0e, 0xee, 0xe7, 0x07, 0x13, 0xe8, 0xee, 0x05, 0x08, 0x0a, 0x19, 0x03,
  0xf7, 0x14, 0xef, 0x06, 0x01, 0x08, 0xea, 0x14, 0x06, 0x11, 0x0d, 0x11,
  0xfa, 0x15, 0xfe, 0x0a, 0xe8, 0xe3, 0xec, 0xff, 0x1a, 0xfc, 0x0f, 0xe8,
  0x16, 0xed, 0xe1, 0x0d, 0xf5, 0x0a, 0xf3, 0xd6, 0xe3, 0xe4, 0xed, 0x0b,
  0xed, 0x13, 0x1b, 0xfc, 0xfd, 0xf0, 0xf6, 0xfd, 0xe6, 0xf7, 0x1c, 0x12,
  0xff, 0xf1, 0xec, 0x07, 0x0d, 0x19, 0xf3, 0xf0, 0x03, 0x01, 0xfb, 0x03,
  0x01, 0xf8, 0x04, 0x04, 0xfe, 0x08, 0x18, 0xf6, 0x10, 0x15, 0x07, 0x00,
  0xfc, 0x18, 0xfc, 0x1a, 0x10, 0xfb, 0x0a, 0x12, 0x10, 0xfb, 0xe2, 0x18,
  0xf7, 0xf0, 0x87, 0xd5, 0x51, 0x0f, 0x12, 0x2f, 0xfe, 0xef, 0x16, 0xf7,
  0x1c, 0xe5, 0x95, 0xe5, 0xfe, 0xf4, 0x36, 0x0a, 0x14, 0x18, 0xdf, 0xf4,
  0x11, 0x1b, 0x88, 0x81, 0x11, 0xfb, 0xf8, 0x0c, 0x03, 0x28, 0x03, 0xfc,
  0x0b, 0x12, 0x05, 0x05, 0x0f, 0xe5, 0x0c, 0x1c, 0xef, 0xe3, 0xe7, 0x1a,
  0xf7, 0xe8, 0x10, 0xe2, 0xf5, 0x19, 0xf5, 0x12, 0xe5, 0xf4, 0xff, 0x1d,
  0xeb, 0x0c, 0x13, 0x12, 0xe7, 0x03, 0x12, 0xf2, 0x09, 0xfa, 0xe9, 0x0a,
  0xf8, 0xf2, 0xe3, 0x12, 0xf3, 0xed, 0xeb, 0x1a, 0xeb, 0xf9, 0xee, 0xfa,
  0x0d, 0xe6, 0xed, 0x18, 0x0c, 0x1d, 0x17, 0xef, 0x0c, 0x02, 0x04, 0x18,
  0x1f, 0x1b, 0x05, 0x10, 0xe2, 0xf1, 0xea, 0x17, 0x02, 0xfd, 0x27, 0x23,
  0x1e, 0x0c, 0xfd, 0x10, 0x15, 0x1c, 0xe3, 0xe3, 0xec, 0xe9, 0xe7, 0x01,
  0xf1, 0xf3, 0xf2, 0x16, 0xfa, 0xe6, 0xf9, 0x06, 0xfe, 0x1b, 0xe5, 0x0d,
  0x06, 0x18, 0x22, 0xf1, 0xeb, 0x06, 0x0a, 0xe7, 0xed, 0x1b, 0x20, 0x1e,
  0x01, 0xff, 0x33, 0x0f, 0xf7, 0xea, 0x16, 0x1b, 0x02, 0x16, 0x11, 0x15,
  0x1d, 0xfe, 0x0d, 0x0c, 0x08, 0xff, 0x07, 0x10, 0xeb, 0xe5, 0xe8, 0x07,
  0x0c, 0xe5, 0x16, 0x15, 0x07, 0xf1, 0xf4, 0x0b, 0xe4, 0x10, 0x13, 0x1d,
  0xfd, 0x1b, 0xee, 0x16, 0xf9, 0x01, 0xe2, 0xff, 0x0a, 0xfe, 0xf1, 0x08,
  0xee, 0xfc, 0x0c, 0xf9, 0xfe, 0xf1, 0x1d, 0xfb, 0x09, 0x1b, 0x1a, 0x0b,
  0xff, 0x1c, 0xfd, 0x0e, 0x17, 0xfe, 0xe6, 0xea, 0xf1, 0xcf, 0xfb, 0xf5,
  0x1a, 0xe8, 0x28, 0xf0, 0xfe, 0x11, 0xeb, 0x0a, 0x1e, 0x13, 0xdf, 0xf7,
  0x13, 0x03, 0xed, 0x06, 0xff, 0x03, 0x02, 0xf5, 0xe6, 0xea, 0xfa, 0xe4,
  0xed, 0x17, 0xfb, 0x10, 0x0f, 0x19, 0xf7, 0x11, 0xf7, 0x1b, 0xfd, 0x02,
  0x1d, 0xcb, 0xe1, 0xf8, 0x03, 0x10, 0x12, 0x0e, 0x04, 0x02, 0x0a, 0xea,
  0x15, 0xe5, 0xff, 0xe7, 0x03, 0xfa, 0x0b, 0x1e, 0x12, 0xfd, 0x0b, 0xf5,
  0xf3, 0x00, 0xe2, 0xfd, 0x10, 0xee, 0x10, 0xf9, 0xeb, 0xf9, 0xec, 0xe8,
  0x0f, 0x18, 0xe9, 0xfd, 0x14, 0xf6, 0x15, 0xfc, 0x0b, 0x1a, 0xeb, 0xfe,
  0x1c, 0x12, 0x0b, 0x06, 0x15, 0xe3, 0xf9, 0x15, 0xe8, 0x13, 0x1d, 0xf3,
  0xf1, 0x04, 0xeb, 0x03, 0x01, 0x16, 0x03, 0x0a, 0xfc, 0x18, 0xfa, 0x1c,
  0x23, 0x10, 0xff, 0x0e, 0xf7, 0x0c, 0xe3, 0x04, 0x17, 0xea, 0x05, 0x14,
  0x1c, 0x02, 0xf0, 0xfc, 0x03, 0x0a, 0xf7, 0x12, 0xf4, 0x1b, 0xfc, 0x0e,
  0xf0, 0xe5, 0x06, 0xec, 0xf8, 0xfb, 0x09, 0xea, 0x19, 0x02, 0xe6, 0xf6,
  0xeb, 0xf2, 0xec, 0x06, 0xfc, 0xe8, 0xff, 0xf6, 0x0d, 0x18, 0x00, 0x1a,
  0x04, 0x2f, 0x02, 0x0e, 0xf9, 0x17, 0x04, 0xf8, 0xec, 0x1c, 0xf2, 0x06,
  0x15, 0xfb, 0x13, 0x1b, 0xf9, 0x15, 0xfd, 0xe2, 0x08, 0x19, 0x12, 0xec,
  0x09, 0x03, 0xf0, 0x19, 0x06, 0x1e, 0x1e, 0x07, 0xe5, 0xfa, 0xf9, 0xe5,
  0x19, 0xee, 0x09, 0x07, 0x02, 0x08, 0xe4, 0x0b, 0xfb, 0xf2, 0x05, 0x0c,
  0x0a, 0xee, 0x13, 0xe4, 0xf2, 0xf3, 0x16, 0x18, 0xec, 0xfa, 0x12, 0xf7,
  0x08, 0xe2, 0x0a, 0x0b, 0x0d, 0x06, 0x0b, 0x04, 0x1a, 0x0e, 0x08, 0x16,
  0xf0, 0x0e, 0xf8, 0xe6, 0x0d, 0xf9, 0x17, 0xf9, 0x0f, 0xf2, 0x08, 0xe8,
  0x06, 0x07, 0xec, 0xf7, 0x0a, 0xee, 0x11, 0xe1, 0xe3, 0xf9, 0xfb, 0x09,
  0xee, 0xfe, 0xf8, 0xfa, 0xec, 0xeb, 0xe1, 0x0b, 0xe8, 0xe5, 0xe5, 0x00,
  0xee, 0xfd, 0xe6, 0x0d, 0xf7, 0xee, 0x1d, 0xe8, 0x16, 0xea, 0xf2, 0x10,
  0x12, 0xf2, 0xe7, 0xf6, 0x03, 0x13, 0xff, 0xfd, 0xfd, 0x1c, 0x15, 0x11,
  0x13, 0x12, 0x15, 0xf1, 0xe3, 0x09, 0xf6, 0xe6, 0xf4, 0xf6, 0x1c, 0xf7,
  0xfa, 0x1b, 0x0a, 0xea, 0x07, 0xf2, 0xfe, 0xe7, 0x18, 0xf1, 0x0a, 0xeb,
  0x07, 0xec, 0x0c, 0x09, 0x08, 0xe9, 0x10, 0x0b, 0xfc, 0x1e, 0xf6, 0xf7,
  0xf1, 0xf6, 0xe2, 0x1e, 0x14, 0x10, 0xfc, 0x0f, 0x01, 0xee, 0xfd, 0x14,
  0xee, 0x07, 0xf8, 0x12, 0x15, 0x1d, 0xf6, 0x12, 0xf3, 0x1c, 0x08, 0xfc,
  0xf6, 0x22, 0xe1, 0xf1, 0x1a, 0x19, 0xf5, 0xf1, 0x12, 0xf2, 0xe2, 0x02,
  0xf6, 0xf2, 0xf7, 0x1a, 0xfa, 0xf1, 0x1f, 0x0a, 0xfd, 0x17, 0xe5, 0xd8,
  0xfb, 0x1c, 0x11, 0xe9, 0xf9, 0xf4, 0x19, 0xe7, 0x1c, 0x18, 0xf6, 0x0c,
  0x15, 0x1d, 0xf1, 0x02, 0xec, 0xef, 0xf4, 0xf3, 0x0b, 0xfc, 0xf7, 0xe2,
  0x15, 0x07, 0xfc, 0x0a, 0x13, 0xef, 0xed, 0xf2, 0xea, 0xfb, 0xef, 0xf7,
  0xef, 0xfe, 0xfa, 0xed, 0xfd, 0x16, 0x00, 0x1e, 0xf3, 0xe4, 0x00, 0xf4,
  0x07, 0x06, 0x14, 0x01, 0xed, 0x07, 0x16, 0xe0, 0x2b, 0xbf, 0xe9, 0x1f,
  0x13, 0xc3, 0xfd, 0xf2, 0xfa, 0xf1, 0xec, 0x1d, 0x01, 0xf9, 0x09, 0xf2,
  0xe7, 0x0d, 0xec, 0xf5, 0x1b, 0xf7, 0xef, 0xf8, 0x02, 0x16, 0x02, 0xf0,
  0xf2, 0xef, 0xe3, 0xf0, 0xe9, 0xec, 0xfc, 0xf1, 0x15, 0xe4, 0x0d, 0x0d,
  0xfd, 0x04, 0x16, 0x27, 0x1b, 0xee, 0xf9, 0x0d, 0xfc, 0xf1, 0xd9, 0x07,
  0x09, 0x0e, 0xf9, 0x1a, 0x00, 0xeb, 0x01, 0x0f, 0xf6, 0xea, 0xe4, 0xd7,
  0xfb, 0x07, 0xea, 0x00, 0xf0, 0x1e, 0x1c, 0xf6, 0xef, 0x16, 0x1e, 0x17,
  0x09, 0xec, 0xe6, 0x0e, 0xe2, 0x0b, 0x0c, 0xfb, 0xec, 0x11, 0xee, 0x19,
  0xf0, 0x16, 0x09, 0x03, 0xfb, 0x07, 0xdb, 0x08, 0xf3, 0xec, 0x06, 0xf2,
  0xec, 0xf2, 0x18, 0x19, 0xe5, 0x06, 0xf3, 0x0e, 0xe9, 0x0f, 0x06, 0xea,
  0x18, 0xf3, 0xee, 0xf3, 0xe4, 0x0a, 0xed, 0x07, 0x10, 0xec, 0xef, 0x0f,
  0x09, 0x18, 0xf4, 0xf9, 0x0b, 0xf1, 0x08, 0xf9, 0x0a, 0xee, 0xea, 0xfe,
  0xf5, 0x14, 0xeb, 0x12, 0xf1, 0x04, 0x13, 0x02, 0x1c, 0x16, 0xf0, 0xec,
  0xfa, 0xfc, 0xea, 0x05, 0x10, 0x05, 0x0b, 0x13, 0x11, 0xfa, 0x17, 0xfd,
  0xf2, 0xe6, 0xef, 0xeb, 0xf1, 0x00, 0xfd, 0x0b, 0x1c, 0x02, 0x07, 0xea,
  0xf7, 0xe4, 0xeb, 0xfd, 0x18, 0x10, 0x19, 0xf9, 0x1f, 0xf9, 0xfd, 0xfc,
  0xe2, 0xe2, 0xea, 0x0a, 0xf5, 0x16, 0xf2, 0xec, 0xf4, 0xed, 0x10, 0x01,
  0xe7, 0x0f, 0x0f, 0x08, 0xff, 0x08, 0xfb, 0x05, 0x1a, 0x14, 0x1a, 0xf3,
  0xef, 0x16, 0x39, 0xf4, 0x17, 0xfd, 0xdc, 0xef, 0x15, 0x19, 0x04, 0xf3,
  0xf2, 0x15, 0x35, 0x1a, 0x0d, 0xfc, 0x05, 0xe3, 0x0d, 0xdf, 0x1b, 0xf2,
  0xfa, 0xe9, 0xfa, 0xf7, 0xe8, 0xe7, 0xec, 0xce, 0x27, 0xe6, 0x04, 0x0d,
  0x13, 0xcb, 0xee, 0x0c, 0xf0, 0xda, 0x05, 0x10, 0xee, 0x0d, 0x0b, 0xf6,
  0x09, 0x0d, 0xf3, 0xf3, 0xe7, 0x00, 0x13, 0x02, 0xf7, 0xf6, 0x06, 0x02,
  0xe7, 0xf1, 0x0a, 0x11, 0x00, 0xff, 0xf5, 0xfd, 0xf8, 0x13, 0x0f, 0x02,
  0x16, 0xe7, 0xe2, 0xed, 0x1c, 0x16, 0x11, 0xe2, 0xfa, 0x19, 0x0b, 0x0e,
  0xe9, 0x05, 0xee, 0x0b, 0x0b, 0x1c, 0xf2, 0x16, 0x18, 0x01, 0x0d, 0x05,
  0xea, 0xf1, 0xe4, 0x0f, 0xf8, 0xfa, 0xfa, 0xe6, 0x08, 0x01, 0x12, 0xf4,
  0xf3, 0xfb, 0x21, 0x02, 0x17, 0xf8, 0x1a, 0x04, 0xeb, 0xe9, 0x1e, 0x13,
  0x14, 0x2c, 0x30, 0x0e, 0xf2, 0x1e, 0x0a, 0xee, 0x0b, 0x11, 0xf3, 0x1d,
  0x10, 0x00, 0x24, 0x2d, 0x0e, 0xf3, 0x0a, 0x05, 0xf1, 0x09, 0xea, 0x1d,
  0xf7, 0xf5, 0x1c, 0x02, 0xe4, 0x01, 0xf6, 0x12, 0xf4, 0x0c, 0xe1, 0x16,
  0xec, 0xe7, 0xf5, 0xef, 0xe7, 0xf4, 0xfe, 0xe2, 0x18, 0x1a, 0xe8, 0xf5,
  0x08, 0xee, 0x12, 0xff, 0x16, 0xfd, 0xfc, 0xf1, 0x1b, 0x03, 0x1d, 0xfc,
  0xec, 0xf8, 0x0e, 0xe3, 0xe9, 0xf8, 0xf8, 0x16, 0xf7, 0xf8, 0xe9, 0x1b,
  0xf9, 0x1e, 0x17, 0xf8, 0x12, 0xfb, 0xff, 0x16, 0xe2, 0xf9, 0xfa, 0xf4,
  0x19, 0x10, 0xf9, 0xf2, 0x1a, 0xea, 0xe8, 0xe4, 0x06, 0xf0, 0xfb, 0xef,
  0x18, 0xe2, 0xf2, 0x05, 0xf2, 0xf4, 0xe4, 0x08, 0x0b, 0x19, 0x1b, 0x00,
  0xea, 0x0d, 0x04, 0xe5, 0x10, 0xc8, 0x14, 0x0a, 0x08, 0xcb, 0x1c, 0x09,
  0xfc, 0xdc, 0x04, 0x16, 0xfe, 0x12, 0x1f, 0xe5, 0xfb, 0x01, 0xef, 0xfd,
  0x09, 0x02, 0xfa, 0xef, 0x05, 0x1b, 0xe5, 0xfe, 0x15, 0xea, 0xee, 0xf8,
  0xf0, 0x1b, 0x0b, 0x10, 0x0a, 0xf5, 0x1a, 0x1f, 0xe8, 0xe3, 0xef, 0xee,
  0xea, 0x13, 0x1c, 0xfa, 0x10, 0x1e, 0x1f, 0x07, 0xe9, 0xe9, 0xef, 0xf2,
  0x10, 0x02, 0x0b, 0x1f, 0x19, 0xe5, 0x3c, 0x26, 0xf6, 0xf2, 0xe8, 0xfc,
  0x1e, 0x04, 0x0e, 0xfe, 0xf1, 0xfb, 0xe3, 0xe2, 0x12, 0x02, 0x06, 0xe6,
  0xfa, 0xe9, 0x15, 0xe0, 0x16, 0xfd, 0x00, 0xfb, 0xe5, 0xfa, 0xf8, 0xee,
  0x07, 0x05, 0x08, 0x15, 0xf0, 0xfb, 0x07, 0xff, 0x08, 0xff, 0xf7, 0xf0,
  0xe3, 0x08, 0xe2, 0xf7, 0x0a, 0x18, 0x03, 0x17, 0x17, 0x18, 0x1b, 0x08,
  0xf3, 0x1b, 0xfd, 0x1b, 0xef, 0x17, 0xf0, 0xfe, 0x17, 0x11, 0x05, 0x0a,
  0x08, 0x18, 0x0e, 0xef, 0x07, 0x0c, 0x12, 0x06, 0x11, 0x0b, 0x02, 0xfd,
  0xf2, 0x02, 0xf9, 0x11, 0xe4, 0x18, 0x02, 0xf3, 0xf4, 0xfc, 0x09, 0x0d,
  0x0a, 0xe9, 0xf2, 0x1d, 0x72, 0xfe, 0xff, 0xff, 0x04, 0x00, 0x00, 0x00,
  0x28, 0x00, 0x00, 0x00, 0xbc, 0xbd, 0x1f, 0x48, 0x19, 0x6e, 0xc6, 0x18,
  0xb3, 0x6c, 0xfe, 0xff, 0x87, 0x2e, 0x54, 0xb5, 0xf0, 0xb0, 0x42, 0xf9,
  0xba, 0xcf, 0x57, 0xea, 0xb4, 0xf1, 0x48, 0x4b, 0xee, 0xd4, 0xcc, 0x91,
  0xfe, 0x58, 0x38, 0xad, 0x81, 0xc6, 0x91, 0xf5, 0xa6, 0xfe, 0xff, 0xff,
  0x04, 0x00, 0x00, 0x00, 0xa0, 0x00, 0x00, 0x00, 0x00, 0x00, 0x00, 0x00,
  0x00, 0x00, 0x00, 0x00, 0x36, 0xf8, 0xff, 0xff, 0xbc, 0xf2, 0xff, 0xff,
  0x94, 0x0f, 0x00, 0x00, 0xf7, 0x0b, 0x00, 0x00, 0x00, 0x00, 0x00, 0x00,
  0x44, 0x12, 0x00, 0x00, 0x00, 0x00, 0x00, 0x00, 0x04, 0x00, 0x00, 0x00,
  0x00, 0x00, 0x00, 0x00, 0x00, 0x00, 0x00, 0x00, 0x00, 0x00, 0x00, 0x00,
  0x72, 0xd6, 0xff, 0xff, 0xba, 0xe2, 0xff, 0xff, 0x00, 0x00, 0x00, 0x00,
  0x00, 0x00, 0x00, 0x00, 0x00, 0x00, 0x00, 0x00, 0x50, 0x1a, 0x00, 0x00,
  0x00, 0x00, 0x00, 0x00, 0x00, 0x00, 0x00, 0x00, 0x00, 0x00, 0x00, 0x00,
  0x97, 0xf1, 0xff, 0xff, 0x00, 0x00, 0x00, 0x00, 0x00, 0x00, 0x00, 0x00,
  0x00, 0x00, 0x00, 0x00, 0xf6, 0xdf, 0xff, 0xff, 0x78, 0xe6, 0xff, 0xff,
  0x00, 0x00, 0x00, 0x00, 0x00, 0x00, 0x00, 0x00, 0x00, 0x00, 0x00, 0x00,
  0x00, 0x00, 0x00, 0x00, 0x00, 0x00, 0x00, 0x00, 0x1c, 0x06, 0x00, 0x00,
  0x74, 0x05, 0x00, 0x00, 0x00, 0x00, 0x00, 0x00, 0x00, 0x00, 0x00, 0x00,
  0x00, 0x00, 0x00, 0x00, 0x00, 0x00, 0x00, 0x00, 0x00, 0x00, 0x00, 0x00,
  0x52, 0xff, 0xff, 0xff, 0x04, 0x00, 0x00, 0x00, 0xa0, 0x00, 0x00, 0x00,
  0x8b, 0x10, 0x00, 0x00, 0x90, 0xf3, 0xff, 0xff, 0xea, 0xff, 0xff, 0xff,
  0x4c, 0x02, 0x00, 0x00, 0x8c, 0xe7, 0xff, 0xff, 0x89, 0xfa, 0xff, 0xff,
  0x3f, 0x05, 0x00, 0x00, 0x82, 0x03, 0x00, 0x00, 0xa5, 0x04, 0x00, 0x00,
  0x6a, 0x1f, 0x00, 0x00, 0xbe, 0xff, 0xff, 0xff, 0x51, 0xfc, 0xff, 0xff,
  0x40, 0xfa, 0xff, 0xff, 0x1e, 0xfe, 0xff, 0xff, 0xd8, 0x06, 0x00, 0x00,
  0x3b, 0x03, 0x00, 0x00, 0x24, 0x00, 0x00, 0x00, 0xe9, 0x06, 0x00, 0x00,
  0x19, 0xfc, 0xff, 0xff, 0xea, 0xff, 0xff, 0xff, 0xba, 0xff, 0xff, 0xff,
  0x00, 0x00, 0x00, 0x00, 0x45, 0xff, 0xff, 0xff, 0x70, 0x07, 0x00, 0x00,
  0x00, 0x00, 0x00, 0x00, 0x8e, 0x10, 0x00, 0x00, 0x28, 0x06, 0x00, 0x00,
  0x21, 0xf8, 0xff, 0xff, 0x15, 0xff, 0xff, 0xff, 0xc0, 0xff, 0xff, 0xff,
  0x90, 0xf5, 0xff, 0xff, 0xb8, 0x0b, 0x00, 0x00, 0x1e, 0xff, 0xff, 0xff,
  0x81, 0xf7, 0xff, 0xff, 0xb2, 0xff, 0xff, 0xff, 0x00, 0x00, 0x00, 0x00,
  0x23, 0x0a, 0x00, 0x00, 0xcf, 0xf4, 0xff, 0xff, 0x8a, 0xff, 0xff, 0xff,
  0xfd, 0xfb, 0xff, 0xff, 0x00, 0x00, 0x06, 0x00, 0x08, 0x00, 0x04, 0x00,
  0x06, 0x00, 0x00, 0x00, 0x04, 0x00, 0x00, 0x00, 0x04, 0x00, 0x00, 0x00,
  0x17, 0xfb, 0xff, 0xff, 0x84, 0xff, 0xff, 0xff, 0x88, 0xff, 0xff, 0xff,
  0x0f, 0x00, 0x00, 0x00, 0x4d, 0x4c, 0x49, 0x52, 0x20, 0x43, 0x6f, 0x6e,
  0x76, 0x65, 0x72, 0x74, 0x65, 0x64, 0x2e, 0x00, 0x01, 0x00, 0x00, 0x00,
  0x14, 0x00, 0x00, 0x00, 0x00, 0x00, 0x0e, 0x00, 0x18, 0x00, 0x14, 0x00,
  0x10, 0x00, 0x0c, 0x00, 0x08, 0x00, 0x04, 0x00, 0x0e, 0x00, 0x00, 0x00,
  0x14, 0x00, 0x00, 0x00, 0x1c, 0x00, 0x00, 0x00, 0xdc, 0x00, 0x00, 0x00,
  0xe0, 0x00, 0x00, 0x00, 0xe4, 0x00, 0x00, 0x00, 0x04, 0x00, 0x00, 0x00,
  0x6d, 0x61, 0x69, 0x6e, 0x00, 0x00, 0x00, 0x00, 0x03, 0x00, 0x00, 0x00,
  0x84, 0x00, 0x00, 0x00, 0x3c, 0x00, 0x00, 0x00, 0x04, 0x00, 0x00, 0x00,
  0x96, 0xff, 0xff, 0xff, 0x14, 0x00, 0x00, 0x00, 0x00, 0x00, 0x00, 0x08,
  0x10, 0x00, 0x00, 0x00, 0x14, 0x00, 0x00, 0x00, 0x04, 0x00, 0x04, 0x00,
  0x04, 0x00, 0x00, 0x00, 0x01, 0x00, 0x00, 0x00, 0x09, 0x00, 0x00, 0x00,
  0x03, 0x00, 0x00, 0x00, 0x08, 0x00, 0x00, 0x00, 0x06, 0x00, 0x00, 0x00,
  0x01, 0x00, 0x00, 0x00, 0xca, 0xff, 0xff, 0xff, 0x10, 0x00, 0x00, 0x00,
  0x00, 0x00, 0x00, 0x08, 0x10, 0x00, 0x00, 0x00, 0x14, 0x00, 0x00, 0x00,
  0xba, 0xff, 0xff, 0xff, 0x00, 0x00, 0x00, 0x01, 0x01, 0x00, 0x00, 0x00,
  0x08, 0x00, 0x00, 0x00, 0x03, 0x00, 0x00, 0x00, 0x07, 0x00, 0x00, 0x00,
  0x05, 0x00, 0x00, 0x00, 0x02, 0x00, 0x00, 0x00, 0x00, 0x00, 0x0e, 0x00,
  0x16, 0x00, 0x00, 0x00, 0x10, 0x00, 0x0c, 0x00, 0x0b, 0x00, 0x04, 0x00,
  0x0e, 0x00, 0x00, 0x00, 0x18, 0x00, 0x00, 0x00, 0x00, 0x00, 0x00, 0x08,
  0x18, 0x00, 0x00, 0x00, 0x1c, 0x00, 0x00, 0x00, 0x00, 0x00, 0x06, 0x00,
  0x08, 0x00, 0x07, 0x00, 0x06, 0x00, 0x00, 0x00, 0x00, 0x00, 0x00, 0x01,
  0x01, 0x00, 0x00, 0x00, 0x07, 0x00, 0x00, 0x00, 0x03, 0x00, 0x00, 0x00,
  0x00, 0x00, 0x00, 0x00, 0x04, 0x00, 0x00, 0x00, 0x03, 0x00, 0x00, 0x00,
  0x01, 0x00, 0x00, 0x00, 0x09, 0x00, 0x00, 0x00, 0x01, 0x00, 0x00, 0x00,
  0x00, 0x00, 0x00, 0x00, 0x0a, 0x00, 0x00, 0x00, 0x4c, 0x04, 0x00, 0x00,
  0xd0, 0x03, 0x00, 0x00, 0x68, 0x03, 0x00, 0x00, 0x0c, 0x03, 0x00, 0x00,
  0x98, 0x02, 0x00, 0x00, 0x24, 0x02, 0x00, 0x00, 0xb0, 0x01, 0x00, 0x00,
  0x24, 0x01, 0x00, 0x00, 0x98, 0x00, 0x00, 0x00, 0x04, 0x00, 0x00, 0x00,
  0xf0, 0xfb, 0xff, 0xff, 0x18, 0x00, 0x00, 0x00, 0x20, 0x00, 0x00, 0x00,
  0x54, 0x00, 0x00, 0x00, 0x0a, 0x00, 0x00, 0x00, 0x00, 0x00, 0x00, 0x09,
  0x6c, 0x00, 0x00, 0x00, 0x02, 0x00, 0x00, 0x00, 0xff, 0xff, 0xff, 0xff,
  0x01, 0x00, 0x00, 0x00, 0xdc, 0xfb, 0xff, 0xff, 0x10, 0x00, 0x00, 0x00,
  0x18, 0x00, 0x00, 0x00, 0x1c, 0x00, 0x00, 0x00, 0x20, 0x00, 0x00, 0x00,
  0x01, 0x00, 0x00, 0x00, 0x02, 0x00, 0x00, 0x00, 0x00, 0x00, 0x00, 0x00,
  0x01, 0x00, 0x00, 0x00, 0x9a, 0xbb, 0x08, 0x3c, 0x01, 0x00, 0x00, 0x00,
  0x9f, 0x94, 0x85, 0x3f, 0x01, 0x00, 0x00, 0x00, 0x1c, 0xd1, 0x8a, 0xbf,
  0x1e, 0x00, 0x00, 0x00, 0x53, 0x74, 0x61, 0x74, 0x65, 0x66, 0x75, 0x6c,
  0x50, 0x61, 0x72, 0x74, 0x69, 0x74, 0x69, 0x6f, 0x6e, 0x65, 0x64, 0x43,
  0x61, 0x6c, 0x6c, 0x3a, 0x30, 0x5f, 0x69, 0x6e, 0x74, 0x38, 0x00, 0x00,
  0x02, 0x00, 0x00, 0x00, 0x01, 0x00, 0x00, 0x00, 0x01, 0x00, 0x00, 0x00,
  0x80, 0xfc, 0xff, 0xff, 0x18, 0x00, 0x00, 0x00, 0x20, 0x00, 0x00, 0x00,
  0x54, 0x00, 0x00, 0x00, 0x09, 0x00, 0x00, 0x00, 0x00, 0x00, 0x00, 0x09,
  0x64, 0x00, 0x00, 0x00, 0x02, 0x00, 0x00, 0x00, 0xff, 0xff, 0xff, 0xff,
  0x28, 0x00, 0x00, 0x00, 0x6c, 0xfc, 0xff, 0xff, 0x10, 0x00, 0x00, 0x00,
  0x18, 0x00, 0x00, 0x00, 0x1c, 0x00, 0x00, 0x00, 0x20, 0x00, 0x00, 0x00,
  0x01, 0x00, 0x00, 0x00, 0x80, 0xff, 0xff, 0xff, 0xff, 0xff, 0xff, 0xff,
  0x01, 0x00, 0x00, 0x00, 0x28, 0x13, 0xf0, 0x3b, 0x01, 0x00, 0x00, 0x00,
  0x15, 0x23, 0xef, 0x3f, 0x01, 0x00, 0x00, 0x00, 0x00, 0x00, 0x00, 0x00,
  0x14, 0x00, 0x00, 0x00, 0x74, 0x66, 0x6c, 0x2e, 0x66, 0x75, 0x6c, 0x6c,
  0x79, 0x5f, 0x63, 0x6f, 0x6e, 0x6e, 0x65, 0x63, 0x74, 0x65, 0x64, 0x31,
  0x00, 0x00, 0x00, 0x00, 0x02, 0x00, 0x00, 0x00, 0x01, 0x00, 0x00, 0x00,
  0x28, 0x00, 0x00, 0x00, 0x08, 0xfd, 0xff, 0xff, 0x18, 0x00, 0x00, 0x00,
  0x20, 0x00, 0x00, 0x00, 0x58, 0x00, 0x00, 0x00, 0x08, 0x00, 0x00, 0x00,
  0x00, 0x00, 0x00, 0x09, 0x64, 0x00, 0x00, 0x00, 0x02, 0x00, 0x00, 0x00,
  0xff, 0xff, 0xff, 0xff, 0x28, 0x00, 0x00, 0x00, 0xf4, 0xfc, 0xff, 0xff,
  0x10, 0x00, 0x00, 0x00, 0x1c, 0x00, 0x00, 0x00, 0x20, 0x00, 0x00, 0x00,
  0x24, 0x00, 0x00, 0x00, 0x01, 0x00, 0x00, 0x00, 0x80, 0xff, 0xff, 0xff,
  0xff, 0xff, 0xff, 0xff, 0x00, 0x00, 0x00, 0x00, 0x01, 0x00, 0x00, 0x00,
  0x13, 0xdd, 0x11, 0x3c, 0x01, 0x00, 0x00, 0x00, 0x36, 0x4b, 0x11, 0x40,
  0x01, 0x00, 0x00, 0x00, 0x00, 0x00, 0x00, 0x00, 0x13, 0x00, 0x00, 0x00,
  0x74, 0x66, 0x6c, 0x2e, 0x66, 0x75, 0x6c, 0x6c, 0x79, 0x5f, 0x63, 0x6f,
  0x6e, 0x6e, 0x65, 0x63, 0x74, 0x65, 0x64, 0x00, 0x02, 0x00, 0x00, 0x00,
  0x01, 0x00, 0x00, 0x00, 0x28, 0x00, 0x00, 0x00, 0x02, 0xfe, 0xff, 0xff,
  0x14, 0x00, 0x00, 0x00, 0x48, 0x00, 0x00, 0x00, 0x07, 0x00, 0x00, 0x00,
  0x00, 0x00, 0x00, 0x09, 0x50, 0x00, 0x00, 0x00, 0x6c, 0xfd, 0xff, 0xff,
  0x10, 0x00, 0x00, 0x00, 0x18, 0x00, 0x00, 0x00, 0x1c, 0x00, 0x00, 0x00,
  0x20, 0x00, 0x00, 0x00, 0x01, 0x00, 0x00, 0x00, 0x00, 0x00, 0x00, 0x00,
  0x00, 0x00, 0x00, 0x00, 0x01, 0x00, 0x00, 0x00, 0x61, 0x85, 0x38, 0x3c,
  0x01, 0x00, 0x00, 0x00, 0x56, 0x14, 0xb7, 0x3f, 0x01, 0x00, 0x00, 0x00,
  0x9c, 0x2d, 0x60, 0xbf, 0x0d, 0x00, 0x00, 0x00, 0x73, 0x74, 0x64, 0x2e,
  0x63, 0x6f, 0x6e, 0x73, 0x74, 0x61, 0x6e, 0x74, 0x32, 0x00, 0x00, 0x00,
  0x02, 0x00, 0x00, 0x00, 0x01, 0x00, 0x00, 0x00, 0x28, 0x00, 0x00, 0x00,
  0x72, 0xfe, 0xff, 0xff, 0x14, 0x00, 0x00, 0x00, 0x48, 0x00, 0x00, 0x00,
  0x06, 0x00, 0x00, 0x00, 0x00, 0x00, 0x00, 0x09, 0x50, 0x00, 0x00, 0x00,
  0xdc, 0xfd, 0xff, 0xff, 0x10, 0x00, 0x00, 0x00, 0x18, 0x00, 0x00, 0x00,
  0x1c, 0x00, 0x00, 0x00, 0x20, 0x00, 0x00, 0x00, 0x01, 0x00, 0x00, 0x00,
  0x00, 0x00, 0x00, 0x00, 0x00, 0x00, 0x00, 0x00, 0x01, 0x00, 0x00, 0x00,
  0x23, 0x28, 0x12, 0x3c, 0x01, 0x00, 0x00, 0x00, 0xaf, 0x6d, 0x5e, 0x3f,
  0x01, 0x00, 0x00, 0x00, 0xd3, 0x03, 0x91, 0xbf, 0x0d, 0x00, 0x00, 0x00,
  0x73, 0x74, 0x64, 0x2e, 0x63, 0x6f, 0x6e, 0x73, 0x74, 0x61, 0x6e, 0x74,
  0x31, 0x00, 0x00, 0x00, 0x02, 0x00, 0x00, 0x00, 0x28, 0x00, 0x00, 0x00,
  0x28, 0x00, 0x00, 0x00, 0xe2, 0xfe, 0xff, 0xff, 0x14, 0x00, 0x00, 0x00,
  0x48, 0x00, 0x00, 0x00, 0x05, 0x00, 0x00, 0x00, 0x00, 0x00, 0x00, 0x09,
  0x50, 0x00, 0x00, 0x00, 0x4c, 0xfe, 0xff, 0xff, 0x10, 0x00, 0x00, 0x00,
  0x18, 0x00, 0x00, 0x00, 0x1c, 0x00, 0x00, 0x00, 0x20, 0x00, 0x00, 0x00,
  0x01, 0x00, 0x00, 0x00, 0x00, 0x00, 0x00, 0x00, 0x00, 0x00, 0x00, 0x00,
  0x01, 0x00, 0x00, 0x00, 0x2c, 0xce, 0x42, 0x3b, 0x01, 0x00, 0x00, 0x00,
  0x74, 0x35, 0xa7, 0x3e, 0x01, 0x00, 0x00, 0x00, 0x90, 0x48, 0xc1, 0xbe,
  0x0c, 0x00, 0x00, 0x00, 0x73, 0x74, 0x64, 0x2e, 0x63, 0x6f, 0x6e, 0x73,
  0x74, 0x61, 0x6e, 0x74, 0x00, 0x00, 0x00, 0x00, 0x02, 0x00, 0x00, 0x00,
  0x28, 0x00, 0x00, 0x00, 0x01, 0x00, 0x00, 0x00, 0x52, 0xff, 0xff, 0xff,
  0x14, 0x00, 0x00, 0x00, 0x34, 0x00, 0x00, 0x00, 0x04, 0x00, 0x00, 0x00,
  0x00, 0x00, 0x00, 0x02, 0x3c, 0x00, 0x00, 0x00, 0x44, 0xff, 0xff, 0xff,
  0x08, 0x00, 0x00, 0x00, 0x14, 0x00, 0x00, 0x00, 0x01, 0x00, 0x00, 0x00,
  0x00, 0x00, 0x00, 0x00, 0x00, 0x00, 0x00, 0x00, 0x00, 0x00, 0x00, 0x00,
  0x01, 0x00, 0x00, 0x00, 0x45, 0x30, 0x99, 0x38, 0x0c, 0x00, 0x00, 0x00,
  0x64, 0x65, 0x6e, 0x73, 0x65, 0x5f, 0x33, 0x2f, 0x62, 0x69, 0x61, 0x73,
  0x00, 0x00, 0x00, 0x00, 0x01, 0x00, 0x00, 0x00, 0x28, 0x00, 0x00, 0x00,
  0xaa, 0xff, 0xff, 0xff, 0x14, 0x00, 0x00, 0x00, 0x30, 0x00, 0x00, 0x00,
  0x03, 0x00, 0x00, 0x00, 0x00, 0x00, 0x00, 0x02, 0x38, 0x00, 0x00, 0x00,
  0x9c, 0xff, 0xff, 0xff, 0x08, 0x00, 0x00, 0x00, 0x10, 0x00, 0x00, 0x00,
  0x01, 0x00, 0x00, 0x00, 0x00, 0x00, 0x00, 0x00, 0x00, 0x00, 0x00, 0x00,
  0x01, 0x00, 0x00, 0x00, 0xe7, 0x8d, 0xa6, 0x38, 0x0c, 0x00, 0x00, 0x00,
  0x64, 0x65, 0x6e, 0x73, 0x65, 0x5f, 0x34, 0x2f, 0x62, 0x69, 0x61, 0x73,
  0x00, 0x00, 0x00, 0x00, 0x01, 0x00, 0x00, 0x00, 0x28, 0x00, 0x00, 0x00,
  0x00, 0x00, 0x0e, 0x00, 0x18, 0x00, 0x14, 0x00, 0x13, 0x00, 0x0c, 0x00,
  0x08, 0x00, 0x04, 0x00, 0x0e, 0x00, 0x00, 0x00, 0x20, 0x00, 0x00, 0x00,
  0x40, 0x00, 0x00, 0x00, 0x02, 0x00, 0x00, 0x00, 0x00, 0x00, 0x00, 0x02,
  0x48, 0x00, 0x00, 0x00, 0x0c, 0x00, 0x0c, 0x00, 0x00, 0x00, 0x00, 0x00,
  0x08, 0x00, 0x04, 0x00, 0x0c, 0x00, 0x00, 0x00, 0x08, 0x00, 0x00, 0x00,
  0x14, 0x00, 0x00, 0x00, 0x01, 0x00, 0x00, 0x00, 0x00, 0x00, 0x00, 0x00,
  0x00, 0x00, 0x00, 0x00, 0x00, 0x00, 0x00, 0x00, 0x01, 0x00, 0x00, 0x00,
  0xda, 0x0a, 0xad, 0x38, 0x0c, 0x00, 0x00, 0x00, 0x64, 0x65, 0x6e, 0x73,
  0x65, 0x5f, 0x35, 0x2f, 0x62, 0x69, 0x61, 0x73, 0x00, 0x00, 0x00, 0x00,
  0x01, 0x00, 0x00, 0x00, 0x01, 0x00, 0x00, 0x00, 0x14, 0x00, 0x1c, 0x00,
  0x18, 0x00, 0x17, 0x00, 0x10, 0x00, 0x0c, 0x00, 0x08, 0x00, 0x00, 0x00,
  0x00, 0x00, 0x04, 0x00, 0x14, 0x00, 0x00, 0x00, 0x18, 0x00, 0x00, 0x00,
  0x2c, 0x00, 0x00, 0x00, 0x64, 0x00, 0x00, 0x00, 0x01, 0x00, 0x00, 0x00,
  0x00, 0x00, 0x00, 0x09, 0x84, 0x00, 0x00, 0x00, 0x02, 0x00, 0x00, 0x00,
  0xff, 0xff, 0xff, 0xff, 0x01, 0x00, 0x00, 0x00, 0x0c, 0x00, 0x14, 0x00,
  0x10, 0x00, 0x0c, 0x00, 0x08, 0x00, 0x04, 0x00, 0x0c, 0x00, 0x00, 0x00,
  0x10, 0x00, 0x00, 0x00, 0x1c, 0x00, 0x00, 0x00, 0x20, 0x00, 0x00, 0x00,
  0x24, 0x00, 0x00, 0x00, 0x01, 0x00, 0x00, 0x00, 0x80, 0xff, 0xff, 0xff,
  0xff, 0xff, 0xff, 0xff, 0x00, 0x00, 0x00, 0x00, 0x01, 0x00, 0x00, 0x00,
  0x5d, 0x4f, 0xc9, 0x3c, 0x01, 0x00, 0x00, 0x00, 0x0e, 0x86, 0xc8, 0x40,
  0x01, 0x00, 0x00, 0x00, 0x00, 0x00, 0x00, 0x00, 0x24, 0x00, 0x00, 0x00,
  0x73, 0x65, 0x72, 0x76, 0x69, 0x6e, 0x67, 0x5f, 0x64, 0x65, 0x66, 0x61,
  0x75, 0x6c, 0x74, 0x5f, 0x64, 0x65, 0x6e, 0x73, 0x65, 0x5f, 0x33, 0x5f,
  0x69, 0x6e, 0x70, 0x75, 0x74, 0x3a, 0x30, 0x5f, 0x69, 0x6e, 0x74, 0x38,
  0x00, 0x00, 0x00, 0x00, 0x02, 0x00, 0x00, 0x00, 0x01, 0x00, 0x00, 0x00,
  0x01, 0x00, 0x00, 0x00, 0x03, 0x00, 0x00, 0x00, 0x40, 0x00, 0x00, 0x00,
  0x24, 0x00, 0x00, 0x00, 0x04, 0x00, 0x00, 0x00, 0xd8, 0xff, 0xff, 0xff,
  0x06, 0x00, 0x00, 0x00, 0x02, 0x00, 0x00, 0x00, 0x00, 0x00, 0x00, 0x06,
  0x0c, 0x00, 0x0c, 0x00, 0x0b, 0x00, 0x00, 0x00, 0x00, 0x00, 0x04, 0x00,
  0x0c, 0x00, 0x00, 0x00, 0x72, 0x00, 0x00, 0x00, 0x00, 0x00, 0x00, 0x72,
  0x0c, 0x00, 0x10, 0x00, 0x0f, 0x00, 0x00, 0x00, 0x08, 0x00, 0x04, 0x00,
  0x0c, 0x00, 0x00, 0x00, 0x09, 0x00, 0x00, 0x00, 0x04, 0x00, 0x00, 0x00,
  0x00, 0x00, 0x00, 0x09
};
unsigned int g_model_len = 4072;

*/

/*
 * NN: 50-50 with integer optimization
 * Got error ! do not use by now
 */
/*
unsigned char g_model[] = {
  0x20, 0x00, 0x00, 0x00, 0x54, 0x46, 0x4c, 0x33, 0x00, 0x00, 0x00, 0x00,
  0x14, 0x00, 0x20, 0x00, 0x1c, 0x00, 0x18, 0x00, 0x14, 0x00, 0x10, 0x00,
  0x0c, 0x00, 0x00, 0x00, 0x08, 0x00, 0x04, 0x00, 0x14, 0x00, 0x00, 0x00,
  0x1c, 0x00, 0x00, 0x00, 0x98, 0x00, 0x00, 0x00, 0xc8, 0x00, 0x00, 0x00,
  0x38, 0x0d, 0x00, 0x00, 0x48, 0x0d, 0x00, 0x00, 0x4c, 0x13, 0x00, 0x00,
  0x03, 0x00, 0x00, 0x00, 0x01, 0x00, 0x00, 0x00, 0x04, 0x00, 0x00, 0x00,
  0x44, 0xed, 0xff, 0xff, 0x10, 0x00, 0x00, 0x00, 0x18, 0x00, 0x00, 0x00,
  0x28, 0x00, 0x00, 0x00, 0x44, 0x00, 0x00, 0x00, 0x05, 0x00, 0x00, 0x00,
  0x73, 0x65, 0x72, 0x76, 0x65, 0x00, 0x00, 0x00, 0x0f, 0x00, 0x00, 0x00,
  0x73, 0x65, 0x72, 0x76, 0x69, 0x6e, 0x67, 0x5f, 0x64, 0x65, 0x66, 0x61,
  0x75, 0x6c, 0x74, 0x00, 0x01, 0x00, 0x00, 0x00, 0x04, 0x00, 0x00, 0x00,
  0xbc, 0xff, 0xff, 0xff, 0x09, 0x00, 0x00, 0x00, 0x04, 0x00, 0x00, 0x00,
  0x07, 0x00, 0x00, 0x00, 0x64, 0x65, 0x6e, 0x73, 0x65, 0x5f, 0x38, 0x00,
  0x01, 0x00, 0x00, 0x00, 0x04, 0x00, 0x00, 0x00, 0x5a, 0xf3, 0xff, 0xff,
  0x04, 0x00, 0x00, 0x00, 0x0d, 0x00, 0x00, 0x00, 0x64, 0x65, 0x6e, 0x73,
  0x65, 0x5f, 0x36, 0x5f, 0x69, 0x6e, 0x70, 0x75, 0x74, 0x00, 0x00, 0x00,
  0x01, 0x00, 0x00, 0x00, 0x0c, 0x00, 0x00, 0x00, 0x08, 0x00, 0x0c, 0x00,
  0x08, 0x00, 0x04, 0x00, 0x08, 0x00, 0x00, 0x00, 0x0b, 0x00, 0x00, 0x00,
  0x04, 0x00, 0x00, 0x00, 0x13, 0x00, 0x00, 0x00, 0x6d, 0x69, 0x6e, 0x5f,
  0x72, 0x75, 0x6e, 0x74, 0x69, 0x6d, 0x65, 0x5f, 0x76, 0x65, 0x72, 0x73,
  0x69, 0x6f, 0x6e, 0x00, 0x0c, 0x00, 0x00, 0x00, 0x6c, 0x0c, 0x00, 0x00,
  0x64, 0x0c, 0x00, 0x00, 0x50, 0x0c, 0x00, 0x00, 0x70, 0x0b, 0x00, 0x00,
  0x98, 0x0a, 0x00, 0x00, 0x54, 0x0a, 0x00, 0x00, 0x80, 0x00, 0x00, 0x00,
  0x3c, 0x00, 0x00, 0x00, 0x34, 0x00, 0x00, 0x00, 0x2c, 0x00, 0x00, 0x00,
  0x24, 0x00, 0x00, 0x00, 0x04, 0x00, 0x00, 0x00, 0xde, 0xf3, 0xff, 0xff,
  0x04, 0x00, 0x00, 0x00, 0x10, 0x00, 0x00, 0x00, 0x31, 0x2e, 0x35, 0x2e,
  0x30, 0x00, 0x00, 0x00, 0x00, 0x00, 0x00, 0x00, 0x00, 0x00, 0x00, 0x00,
  0x68, 0xf3, 0xff, 0xff, 0x6c, 0xf3, 0xff, 0xff, 0x70, 0xf3, 0xff, 0xff,
  0x06, 0xf4, 0xff, 0xff, 0x04, 0x00, 0x00, 0x00, 0x32, 0x00, 0x00, 0x00,
  0x02, 0xe4, 0x10, 0xda, 0x08, 0xbe, 0x53, 0x1a, 0xf4, 0x15, 0x06, 0xe0,
  0xee, 0xe3, 0x0c, 0x7f, 0x2a, 0x7e, 0x1e, 0x08, 0xb8, 0xcf, 0x1b, 0x14,
  0x15, 0x47, 0xec, 0x01, 0xfb, 0x25, 0xa3, 0x1a, 0x0b, 0xdb, 0xed, 0x19,
  0xc4, 0xe4, 0xf4, 0xd6, 0x02, 0xe3, 0xb5, 0x11, 0xf4, 0xe9, 0xfc, 0x10,
  0x20, 0xba, 0x00, 0x00, 0x46, 0xf4, 0xff, 0xff, 0x04, 0x00, 0x00, 0x00,
  0xc4, 0x09, 0x00, 0x00, 0xf2, 0x05, 0xe9, 0xe7, 0x03, 0xe7, 0xe8, 0xdf,
  0xf0, 0xde, 0xe5, 0x09, 0xeb, 0xef, 0x1a, 0xe6, 0x0b, 0x1b, 0xfa, 0x1a,
  0xe0, 0x08, 0x07, 0xdf, 0xe0, 0xed, 0x17, 0xfe, 0x0d, 0x1b, 0xfe, 0xf4,
  0x0e, 0xfe, 0x09, 0xf0, 0xf3, 0xde, 0x04, 0xfe, 0x21, 0x19, 0xde, 0xf3,
  0xf7, 0x0a, 0x0c, 0x0a, 0x0f, 0x12, 0x21, 0x02, 0xf1, 0xf5, 0xfd, 0xde,
  0x0f, 0x18, 0xf3, 0xe3, 0x22, 0xf0, 0xea, 0xe6, 0x06, 0x2c, 0x13, 0x03,
  0x0b, 0x1c, 0x0d, 0x1c, 0xf5, 0x0b, 0x14, 0xf8, 0xe9, 0x02, 0xe0, 0x32,
  0x02, 0x1d, 0x1c, 0x01, 0x04, 0x06, 0x10, 0xf3, 0x1a, 0x1c, 0x0f, 0x10,
  0xf0, 0xdb, 0xe5, 0xfb, 0xe6, 0x1a, 0xeb, 0x04, 0xf7, 0xf7, 0x0b, 0xe7,
  0x06, 0x09, 0xf5, 0x1c, 0x03, 0xfa, 0x0a, 0x05, 0x06, 0x08, 0xde, 0xfd,
  0xeb, 0x10, 0x04, 0xfb, 0x15, 0xe0, 0xf4, 0xe2, 0x04, 0x00, 0xe6, 0x08,
  0x0e, 0x0e, 0xf8, 0x22, 0xe4, 0xed, 0x23, 0x0c, 0x17, 0xe9, 0x15, 0xdd,
  0xe4, 0x20, 0xf9, 0xe4, 0x22, 0xea, 0x1f, 0x0d, 0x18, 0xeb, 0xf8, 0xf9,
  0xeb, 0xe4, 0xe8, 0x1a, 0xf0, 0x09, 0xf2, 0xf5, 0x1e, 0x18, 0x0b, 0x1b,
  0xdf, 0x05, 0x0c, 0xef, 0xfb, 0xfb, 0x1b, 0xf5, 0x2c, 0xe8, 0xec, 0x21,
  0x0d, 0x14, 0xe9, 0x16, 0xe0, 0xed, 0xe1, 0xfa, 0x16, 0x02, 0xfa, 0x1a,
  0xfa, 0x0e, 0x18, 0xf8, 0x22, 0xfc, 0xe7, 0xed, 0x22, 0x20, 0xe4, 0xf8,
  0xf0, 0xe2, 0xfb, 0x06, 0x18, 0x21, 0xee, 0x05, 0xe2, 0x17, 0xf6, 0x1d,
  0x04, 0x06, 0x12, 0xfe, 0xf5, 0x10, 0x05, 0x08, 0x22, 0xef, 0xeb, 0xff,
  0xe2, 0xfe, 0xec, 0x02, 0xff, 0x09, 0xe1, 0x0a, 0xe9, 0xe9, 0x14, 0x10,
  0xf5, 0x23, 0x1b, 0xde, 0x0f, 0xe1, 0xf5, 0xf2, 0xef, 0xfc, 0x12, 0x00,
  0x04, 0x11, 0xe2, 0x14, 0x3d, 0x28, 0xe2, 0xe2, 0xfe, 0xda, 0xf4, 0xe4,
  0x1f, 0x07, 0xf7, 0xe4, 0x20, 0x26, 0xf2, 0x22, 0xe2, 0xde, 0xe5, 0xe3,
  0x31, 0xea, 0xf9, 0xe4, 0xee, 0x11, 0xe8, 0x2e, 0xd1, 0xfb, 0x0b, 0xd2,
  0xff, 0x03, 0x02, 0x0d, 0xe9, 0xd9, 0x03, 0xe6, 0x02, 0x02, 0xee, 0x13,
  0x11, 0xdd, 0xde, 0xc0, 0xed, 0x10, 0xcb, 0x1a, 0xeb, 0xee, 0xee, 0x1b,
  0x02, 0xe7, 0x02, 0xeb, 0x1d, 0x1f, 0xfa, 0xe6, 0x1c, 0xe2, 0xfc, 0x13,
  0x10, 0x0b, 0xf4, 0x1c, 0xe1, 0x14, 0x0b, 0x03, 0xe9, 0xbf, 0x1e, 0xef,
  0xde, 0x31, 0xf1, 0xf2, 0xf3, 0xee, 0xf8, 0xfc, 0x09, 0x14, 0x16, 0xf9,
  0xe0, 0x14, 0x04, 0x11, 0xff, 0x16, 0xf1, 0x04, 0x06, 0xde, 0xf1, 0xf0,
  0x08, 0x1b, 0x1b, 0xfb, 0xf9, 0xfc, 0xf2, 0xed, 0xf6, 0xfd, 0xfb, 0xfd,
  0xe4, 0xff, 0xfe, 0x22, 0xe2, 0xff, 0xf1, 0xf4, 0x01, 0xe7, 0x15, 0xae,
  0xea, 0x1e, 0x08, 0x1b, 0x09, 0x1d, 0x0c, 0x22, 0x12, 0x0e, 0x0c, 0x25,
  0xfc, 0x1b, 0x1c, 0x00, 0xea, 0x18, 0x1e, 0x08, 0x21, 0x04, 0x13, 0xff,
  0xf2, 0x13, 0x00, 0x1f, 0xf3, 0x0e, 0x11, 0xec, 0xe4, 0x15, 0xe3, 0x1c,
  0x13, 0x1a, 0x0b, 0xde, 0x1c, 0x0f, 0x32, 0x1d, 0x1a, 0xee, 0xfb, 0x10,
  0x20, 0x37, 0x00, 0x18, 0x09, 0x0d, 0x07, 0x1c, 0x20, 0xf0, 0xec, 0xf5,
  0x07, 0xf1, 0x08, 0x0c, 0x01, 0xee, 0x07, 0x05, 0xf7, 0x02, 0xe4, 0x05,
  0x0e, 0xfd, 0x0c, 0xe6, 0xe3, 0xdd, 0xed, 0xf8, 0xdf, 0x00, 0x0e, 0x0f,
  0xfc, 0xf0, 0x08, 0xf9, 0xf2, 0xe6, 0x04, 0xfa, 0xf3, 0xef, 0xea, 0x16,
  0x09, 0x1b, 0x1f, 0x13, 0xe4, 0xf0, 0xdf, 0x15, 0x06, 0xe3, 0x0f, 0x0b,
  0x17, 0xf3, 0xe5, 0x20, 0xf7, 0x15, 0x09, 0x00, 0xe6, 0xea, 0x0e, 0x0c,
  0x1d, 0x18, 0xdf, 0xe8, 0xe7, 0x12, 0x1a, 0x1c, 0xeb, 0xfa, 0x21, 0x20,
  0x06, 0xfa, 0x0f, 0xdf, 0xf8, 0x00, 0x0d, 0xe9, 0xef, 0x0e, 0x08, 0x10,
  0x05, 0x17, 0x1f, 0x1c, 0xed, 0xba, 0xf6, 0x03, 0x1c, 0x03, 0x1c, 0xf4,
  0xfb, 0xfb, 0x06, 0x18, 0xea, 0x12, 0xe5, 0xf4, 0x1c, 0x0b, 0xe0, 0x21,
  0x20, 0x27, 0x19, 0xfe, 0xee, 0x10, 0xf6, 0xef, 0x1e, 0x20, 0x04, 0xef,
  0xf4, 0xe8, 0xe8, 0xe7, 0x0f, 0x16, 0xf3, 0x1f, 0x1b, 0x0b, 0xee, 0xff,
  0x0c, 0xf0, 0xf8, 0xff, 0x0d, 0x11, 0x0d, 0x1f, 0x1c, 0x18, 0xeb, 0x12,
  0xe1, 0xf8, 0x22, 0xe4, 0xe7, 0xfa, 0x0f, 0x14, 0x13, 0xdb, 0x0d, 0xe4,
  0xde, 0x18, 0x0a, 0x15, 0x06, 0x03, 0x14, 0xe8, 0x08, 0xec, 0xfe, 0xe2,
  0x12, 0x10, 0x09, 0xeb, 0xfe, 0xf3, 0xee, 0xf1, 0xf6, 0xe3, 0xe0, 0xfb,
  0x03, 0xfb, 0xf4, 0xf6, 0x1c, 0x12, 0xf3, 0xf8, 0x23, 0xff, 0x11, 0x0b,
  0x18, 0x00, 0xe4, 0xf0, 0x1a, 0xec, 0x0a, 0xf0, 0xf7, 0xf7, 0xf8, 0xfc,
  0xfa, 0xe4, 0x0a, 0x0f, 0xfc, 0x05, 0x05, 0x10, 0xed, 0x18, 0xe4, 0xfb,
  0x09, 0x0e, 0xf9, 0x18, 0xff, 0x08, 0xeb, 0x0c, 0x0a, 0xfe, 0xf4, 0xf0,
  0x14, 0x11, 0xde, 0x17, 0x27, 0x19, 0x06, 0xdf, 0x12, 0xdf, 0x18, 0x1f,
  0x00, 0xec, 0xe3, 0xf0, 0x17, 0xe6, 0x13, 0xf4, 0xee, 0x0b, 0x0e, 0x10,
  0x1f, 0xf0, 0x22, 0xe5, 0xff, 0xfd, 0x14, 0xe4, 0x03, 0xfc, 0x06, 0x18,
  0x12, 0x1d, 0x12, 0x23, 0x0a, 0x00, 0x13, 0x23, 0x04, 0x03, 0x1d, 0xfe,
  0x1a, 0x1a, 0x1b, 0x0f, 0x01, 0xfc, 0xc9, 0x13, 0x13, 0x08, 0x1e, 0x1d,
  0xfa, 0xb8, 0xfb, 0x19, 0xeb, 0x2e, 0x1d, 0x06, 0x1c, 0x21, 0x12, 0x00,
  0x00, 0xe8, 0x1f, 0x02, 0xf2, 0x16, 0xe7, 0x1f, 0x11, 0x19, 0x16, 0xf5,
  0x27, 0x05, 0x07, 0xf4, 0xfe, 0xeb, 0x11, 0xfe, 0x20, 0x1c, 0x00, 0xe7,
  0xe5, 0x26, 0xff, 0x1e, 0xfe, 0xe1, 0x23, 0xee, 0x4b, 0x1c, 0xe9, 0x19,
  0xf7, 0x12, 0x0e, 0x6d, 0xdb, 0xfa, 0x12, 0xd5, 0x15, 0x21, 0xf1, 0xf1,
  0xcc, 0x15, 0xdd, 0xf3, 0xef, 0xd9, 0x05, 0x1a, 0x22, 0xfa, 0x15, 0xeb,
  0x07, 0x11, 0xe2, 0x00, 0x1b, 0x25, 0x16, 0xe0, 0x0d, 0x0c, 0xe2, 0x1f,
  0x12, 0xe8, 0x04, 0xe8, 0x0c, 0x1d, 0x18, 0xde, 0x1b, 0xfe, 0x0f, 0x0b,
  0x07, 0xee, 0xe1, 0xfe, 0xf1, 0xee, 0x13, 0xea, 0x22, 0x22, 0x12, 0xf4,
  0x06, 0xfd, 0xfd, 0x0f, 0xf9, 0x15, 0xe9, 0x25, 0xfb, 0xed, 0x1f, 0x22,
  0x0a, 0xef, 0xf7, 0x06, 0x34, 0x1b, 0x0a, 0xe4, 0x12, 0xda, 0xe3, 0xe7,
  0x05, 0xe4, 0x0c, 0xd6, 0x0e, 0x45, 0x09, 0xe5, 0xe4, 0x09, 0x22, 0xe9,
  0x15, 0xef, 0x12, 0xec, 0x1f, 0xef, 0xf6, 0x7f, 0x08, 0xfd, 0x01, 0xb5,
  0xee, 0xf1, 0xe3, 0x0c, 0xfb, 0xfd, 0x07, 0xfa, 0x08, 0xee, 0x04, 0xfa,
  0x12, 0xca, 0x0d, 0xb3, 0xec, 0x1f, 0x02, 0x11, 0xec, 0xfc, 0x17, 0xe2,
  0xe8, 0xe4, 0x21, 0x0e, 0x18, 0x02, 0x0c, 0x2c, 0xff, 0xf7, 0x14, 0xde,
  0xeb, 0xf8, 0x26, 0xf4, 0xdf, 0xec, 0x04, 0x13, 0xf7, 0x14, 0xeb, 0xde,
  0xf0, 0x04, 0xfc, 0x03, 0x1b, 0x18, 0xdd, 0xfc, 0x03, 0x01, 0x0c, 0x1f,
  0xe8, 0xf7, 0x06, 0xda, 0x08, 0xf5, 0x15, 0xf0, 0x10, 0xe2, 0x22, 0xe0,
  0xda, 0x21, 0x1b, 0xed, 0xe5, 0x0b, 0x10, 0x12, 0xeb, 0x0a, 0xf0, 0x09,
  0xfe, 0x12, 0xe5, 0xe5, 0xe3, 0xed, 0x1c, 0x1d, 0xf7, 0xe2, 0xe9, 0x14,
  0xfe, 0xeb, 0x18, 0xde, 0xf5, 0xf2, 0x07, 0x02, 0x01, 0x0c, 0xe9, 0xec,
  0xf6, 0xe2, 0xde, 0x04, 0x08, 0x11, 0xe9, 0xea, 0x9d, 0x02, 0x16, 0xe6,
  0xed, 0xd7, 0xd3, 0x28, 0xfa, 0xce, 0x20, 0x1e, 0x12, 0x12, 0xe5, 0xfe,
  0xe1, 0xf9, 0x35, 0x1b, 0x0d, 0x29, 0x36, 0x13, 0x05, 0x22, 0xe3, 0xf8,
  0xf2, 0x39, 0x0c, 0xe6, 0xe6, 0xf1, 0x15, 0x19, 0x0e, 0xe8, 0xa0, 0x8c,
  0xe8, 0xe2, 0xe6, 0xf8, 0x04, 0x0f, 0x12, 0x05, 0x0f, 0xed, 0x0c, 0x16,
  0x1c, 0x22, 0xf7, 0xe2, 0xff, 0xe1, 0x1b, 0x1b, 0xfd, 0x08, 0xf5, 0xef,
  0xf5, 0x33, 0x06, 0x12, 0xf2, 0x06, 0xe9, 0x17, 0x1b, 0x01, 0xf9, 0xf4,
  0x00, 0xef, 0x19, 0x2f, 0x18, 0xf7, 0x0f, 0xdf, 0x19, 0x03, 0x21, 0x03,
  0x03, 0xf2, 0x22, 0xe2, 0x11, 0x16, 0x07, 0xf2, 0xfa, 0xef, 0xfd, 0xfe,
  0xf8, 0xe2, 0x12, 0xe2, 0xef, 0xfe, 0x07, 0xde, 0x05, 0x1d, 0xf2, 0x03,
  0xf3, 0x10, 0xf8, 0xe9, 0x0c, 0xf1, 0xed, 0xf3, 0x0c, 0xf1, 0xdf, 0x1e,
  0xf4, 0x1b, 0x13, 0xf0, 0xfa, 0xea, 0x18, 0x12, 0xfa, 0xfe, 0xe0, 0xe3,
  0xfe, 0xfa, 0xfa, 0xf5, 0x0e, 0xe6, 0x10, 0x06, 0x1b, 0x00, 0x1a, 0xfd,
  0x00, 0x1e, 0xf1, 0xf7, 0xe1, 0x0d, 0xfb, 0xfa, 0x0c, 0x13, 0x00, 0x00,
  0xf0, 0x13, 0x1d, 0x25, 0x16, 0xdc, 0x0d, 0xea, 0x1b, 0xfd, 0xfe, 0x10,
  0xc4, 0x08, 0xde, 0xe5, 0xfe, 0xf4, 0xe6, 0x92, 0xef, 0x15, 0x08, 0x46,
  0x05, 0x1e, 0xfd, 0x1c, 0x28, 0x1c, 0xfc, 0x1e, 0x04, 0x08, 0xf1, 0xf8,
  0x04, 0x17, 0x0b, 0xf3, 0x04, 0xe0, 0xfa, 0xde, 0x0a, 0xf8, 0xe5, 0x0d,
  0xe3, 0x00, 0x18, 0xee, 0x22, 0xde, 0x17, 0xff, 0x09, 0x16, 0xe0, 0x19,
  0x0d, 0xf8, 0x14, 0x18, 0x11, 0x09, 0x03, 0x09, 0xfc, 0xf9, 0x16, 0xdf,
  0xed, 0x21, 0xed, 0xfd, 0xed, 0x17, 0xf0, 0xe0, 0x17, 0x07, 0xf7, 0xfa,
  0x1f, 0xf4, 0x0f, 0xe6, 0x14, 0x08, 0x07, 0xe7, 0xd2, 0xfb, 0xdf, 0x1c,
  0xf1, 0xfd, 0x00, 0x22, 0x08, 0x14, 0x1b, 0x06, 0x16, 0xbb, 0xed, 0xe0,
  0x04, 0xea, 0x0f, 0x0b, 0xb8, 0x06, 0x0a, 0xe9, 0x0b, 0xeb, 0x04, 0x9e,
  0x12, 0xee, 0x06, 0x2e, 0xde, 0xe0, 0x0b, 0x0e, 0xff, 0x02, 0xfd, 0x0a,
  0x18, 0xfa, 0x0f, 0x10, 0xea, 0xf8, 0x18, 0x1b, 0x07, 0xf9, 0x0a, 0x13,
  0xf8, 0x0a, 0xfe, 0x1b, 0x02, 0x1e, 0x21, 0xe3, 0xe0, 0x1a, 0x1f, 0x27,
  0x09, 0x22, 0x0b, 0x07, 0x07, 0x06, 0xfd, 0x03, 0xdf, 0x19, 0x21, 0x02,
  0x0a, 0x0f, 0xf2, 0xfc, 0xe6, 0xe8, 0xe5, 0x05, 0xed, 0x13, 0x0a, 0x0c,
  0xdf, 0xf0, 0xe3, 0xe7, 0xe8, 0xe0, 0xe3, 0x07, 0xfe, 0x0b, 0x08, 0x17,
  0xda, 0xfe, 0xea, 0xde, 0xec, 0xff, 0xeb, 0x0a, 0x21, 0xdd, 0xe4, 0xfe,
  0xe2, 0xe0, 0x17, 0x13, 0x15, 0xe3, 0xe2, 0x07, 0x16, 0xeb, 0xed, 0x09,
  0xda, 0xe6, 0x0a, 0x0d, 0xf6, 0x03, 0xdf, 0x1a, 0xe7, 0x10, 0xee, 0x06,
  0x08, 0x08, 0x02, 0xe2, 0x1e, 0x10, 0xff, 0x06, 0x06, 0xec, 0x0e, 0xfe,
  0x06, 0xef, 0x1d, 0xea, 0xe1, 0x05, 0xff, 0x22, 0xe1, 0xfa, 0xf0, 0x07,
  0x0f, 0x03, 0x02, 0x0d, 0xff, 0xfb, 0xe3, 0xf3, 0x15, 0x1c, 0xf7, 0xf5,
  0x01, 0x1f, 0xe9, 0xe3, 0x1c, 0xf8, 0xf6, 0x1e, 0xed, 0xe9, 0xe0, 0xf0,
  0xe9, 0xf6, 0xf2, 0x11, 0xfc, 0x12, 0xe4, 0xf3, 0x10, 0xf9, 0xee, 0xe9,
  0x07, 0xf5, 0xfa, 0x11, 0xfe, 0x18, 0xec, 0x12, 0x14, 0xf2, 0xfc, 0xee,
  0x16, 0xf8, 0x01, 0x15, 0x17, 0x11, 0x0b, 0xee, 0xff, 0x0a, 0xf0, 0xe7,
  0xd9, 0x15, 0x0b, 0x09, 0x12, 0x05, 0x04, 0xfd, 0xfc, 0x17, 0xff, 0x0f,
  0xe0, 0xf6, 0xec, 0x18, 0x0e, 0xe6, 0x1c, 0xe3, 0xdf, 0x16, 0x04, 0xfb,
  0xde, 0x16, 0x1a, 0xf3, 0xcf, 0xe2, 0x0d, 0x17, 0x10, 0x14, 0xf6, 0x12,
  0xf8, 0x0a, 0xfc, 0xdb, 0x1c, 0xde, 0xeb, 0xf2, 0xf8, 0xe2, 0xff, 0x0f,
  0x16, 0xda, 0x0e, 0xf3, 0xdf, 0x0c, 0xd7, 0xfd, 0x11, 0x11, 0xef, 0x1b,
  0xef, 0x13, 0xff, 0xe1, 0x19, 0xee, 0xff, 0xe9, 0xfa, 0x03, 0x13, 0xef,
  0x17, 0xe4, 0xe0, 0x1d, 0xeb, 0xf7, 0xf2, 0x1a, 0x15, 0x16, 0x12, 0xe9,
  0xf9, 0x12, 0xe4, 0xee, 0x22, 0x16, 0xe8, 0xed, 0x1a, 0x01, 0x05, 0xec,
  0xfe, 0x09, 0xff, 0x0d, 0xf4, 0xfd, 0xfb, 0xf3, 0x20, 0x08, 0xfe, 0xe6,
  0xe0, 0xfb, 0xf8, 0x2e, 0x1c, 0x01, 0x18, 0xf2, 0x23, 0xfa, 0xde, 0x25,
  0xf8, 0xf1, 0x03, 0x1f, 0xf1, 0xf2, 0x05, 0xfd, 0x02, 0x14, 0xf4, 0xde,
  0xff, 0xfd, 0xf2, 0xfc, 0x1e, 0xe4, 0x01, 0x01, 0x0e, 0xe5, 0xee, 0x0b,
  0x05, 0x06, 0xf8, 0xf9, 0xe0, 0x01, 0xdf, 0xf7, 0xe7, 0x1a, 0xfd, 0xfe,
  0x0b, 0xfa, 0xe2, 0xec, 0x0f, 0x14, 0x1a, 0x03, 0xff, 0xe9, 0xec, 0xe4,
  0xef, 0xe9, 0xf3, 0xec, 0xe9, 0xf4, 0x05, 0xfa, 0xed, 0x0a, 0xd4, 0x10,
  0x2c, 0xef, 0xf1, 0xd4, 0xe1, 0x05, 0xe9, 0x14, 0x19, 0xe6, 0xe2, 0xe7,
  0xeb, 0x17, 0xf7, 0x17, 0xd9, 0x0f, 0x19, 0xe1, 0x0f, 0x23, 0x08, 0x22,
  0x18, 0xe6, 0x1b, 0x15, 0x06, 0xdd, 0x21, 0xfb, 0x17, 0x0f, 0xe9, 0x12,
  0xec, 0x16, 0xdf, 0xe4, 0x01, 0xe0, 0x11, 0xe9, 0x11, 0xf9, 0x0b, 0x00,
  0xf8, 0x14, 0xf6, 0x0a, 0x0c, 0xe0, 0xeb, 0xe3, 0xe1, 0x05, 0xfb, 0xe4,
  0x1e, 0xef, 0x1a, 0x02, 0x17, 0xfa, 0xe5, 0xfa, 0x15, 0x0b, 0xf4, 0xfe,
  0xfb, 0x05, 0x1a, 0xfc, 0x0f, 0x35, 0x1e, 0xde, 0x01, 0x05, 0xe7, 0xf5,
  0xf6, 0x11, 0x1e, 0x1e, 0x1e, 0xdd, 0x0e, 0xeb, 0xf7, 0x18, 0xf8, 0xf6,
  0x0e, 0x1b, 0xfc, 0xdd, 0x15, 0xfb, 0x1b, 0x03, 0x00, 0xe7, 0xe5, 0x19,
  0xfb, 0x0e, 0x02, 0xf4, 0x16, 0xe0, 0x12, 0x19, 0x17, 0xe6, 0x0d, 0x0d,
  0x02, 0xdd, 0x1c, 0x0c, 0x07, 0x17, 0xe0, 0x0c, 0x02, 0x0e, 0xef, 0xf7,
  0xf7, 0xef, 0xf9, 0xfd, 0x1b, 0xe1, 0xf4, 0xfa, 0x0c, 0x18, 0xe2, 0x18,
  0xe3, 0xf7, 0xe4, 0x0c, 0xc0, 0x18, 0x33, 0xe6, 0xe3, 0xcc, 0x02, 0xcf,
  0x14, 0xfe, 0x22, 0x26, 0xf2, 0xf0, 0xf0, 0x23, 0xf5, 0xee, 0xff, 0x15,
  0x20, 0xf3, 0x04, 0xef, 0x06, 0xf0, 0xde, 0x17, 0xff, 0x23, 0xee, 0x12,
  0x1c, 0xfa, 0xf1, 0x11, 0x0b, 0x12, 0xcf, 0xf8, 0xef, 0x12, 0xe4, 0x03,
  0xe0, 0xfa, 0xee, 0xd2, 0x00, 0xf4, 0xdd, 0xeb, 0x01, 0x04, 0xff, 0xe7,
  0xff, 0x06, 0x22, 0x1a, 0xf6, 0xef, 0xf5, 0x01, 0x18, 0x06, 0xfa, 0xe0,
  0x22, 0xe7, 0x17, 0xe7, 0xe0, 0xe6, 0xf8, 0xe3, 0xe5, 0xf1, 0x04, 0x1a,
  0x1b, 0x10, 0x1a, 0xf8, 0x21, 0x18, 0x16, 0x16, 0xe0, 0x13, 0xfd, 0xf2,
  0xfa, 0x0d, 0xfa, 0xf5, 0xf5, 0x12, 0xf3, 0x19, 0x01, 0x02, 0x17, 0x05,
  0xdf, 0xf5, 0xe9, 0xdf, 0xfd, 0xe6, 0x0a, 0x15, 0xf9, 0xe3, 0x0b, 0xde,
  0x20, 0x0c, 0x08, 0xe0, 0xea, 0x0b, 0xf5, 0xfe, 0xfd, 0xeb, 0xde, 0x1a,
  0xe6, 0xfd, 0xe7, 0x1c, 0x1a, 0x1d, 0xef, 0x14, 0xf3, 0xde, 0xf3, 0xfb,
  0x06, 0xef, 0x0a, 0xe9, 0x11, 0x11, 0xf6, 0x0d, 0xfe, 0xff, 0x18, 0x0b,
  0x04, 0x18, 0x12, 0xf3, 0x06, 0xfd, 0xec, 0x21, 0x00, 0xee, 0x09, 0xfe,
  0x14, 0x13, 0x0b, 0x02, 0xfe, 0x21, 0xde, 0xec, 0x1b, 0x11, 0x02, 0x21,
  0xe5, 0xe5, 0xfd, 0x29, 0xe9, 0x0b, 0xeb, 0xe6, 0xeb, 0x05, 0x13, 0xf2,
  0xff, 0x15, 0xf2, 0x0e, 0x05, 0x02, 0x12, 0x19, 0xf1, 0x18, 0xf7, 0xff,
  0x1c, 0xf7, 0xf3, 0x03, 0xfe, 0xdc, 0xf5, 0x12, 0xf7, 0x17, 0xe3, 0xe2,
  0x14, 0x02, 0xfb, 0x11, 0x13, 0xee, 0xfa, 0x00, 0xfb, 0xe2, 0xdf, 0x20,
  0xed, 0x1e, 0xdb, 0x14, 0xf3, 0xef, 0x1d, 0x21, 0x06, 0xf0, 0xfd, 0x0c,
  0x04, 0xf7, 0xfb, 0x0c, 0x09, 0xe3, 0x10, 0xe1, 0xf4, 0xfb, 0x1a, 0x09,
  0x00, 0xf2, 0xe0, 0x0d, 0x00, 0xfc, 0x1e, 0x07, 0xfc, 0x04, 0xfc, 0x1e,
  0xe2, 0x09, 0x13, 0x13, 0x03, 0x19, 0xf0, 0x12, 0x1c, 0xe2, 0xf2, 0x11,
  0x37, 0x1b, 0xf7, 0xe8, 0xe0, 0xdf, 0x0f, 0x3c, 0x0a, 0x11, 0x06, 0xd9,
  0x06, 0xe8, 0xde, 0x00, 0xe0, 0xf6, 0x0b, 0x18, 0x0a, 0x17, 0x09, 0xec,
  0x0e, 0xe4, 0x1e, 0xf2, 0xd1, 0x17, 0x28, 0x0a, 0x03, 0xe6, 0x08, 0xcd,
  0x1d, 0x02, 0xef, 0xf4, 0xf5, 0xf5, 0x14, 0x21, 0x1c, 0x12, 0x08, 0x1a,
  0xee, 0xd7, 0x28, 0x0b, 0x15, 0xea, 0xf6, 0x16, 0x0c, 0x1e, 0xd6, 0x10,
  0x03, 0xfe, 0x1a, 0x00, 0xf6, 0x18, 0xc5, 0xd1, 0x01, 0xd6, 0xf9, 0xfc,
  0x0f, 0xe4, 0x20, 0xc6, 0x0c, 0xfe, 0x1a, 0x17, 0x0b, 0xf4, 0x1a, 0xff,
  0x20, 0xfe, 0xe9, 0xff, 0x10, 0x13, 0x0e, 0xfc, 0xf2, 0xfd, 0xf6, 0x18,
  0xf5, 0x11, 0xf2, 0xe1, 0xf8, 0x08, 0x17, 0x09, 0x06, 0x10, 0x05, 0xd8,
  0xe0, 0xe6, 0x1e, 0xfa, 0xe3, 0x22, 0xf5, 0x09, 0x1d, 0x1e, 0x17, 0x1c,
  0xfb, 0x0e, 0xdf, 0x03, 0x0f, 0xf3, 0xe7, 0x1a, 0x13, 0xe0, 0xe9, 0x0d,
  0xec, 0x05, 0xe5, 0x20, 0x16, 0x0e, 0xfb, 0x07, 0x20, 0x16, 0xde, 0x0b,
  0x01, 0xe0, 0x14, 0x08, 0x14, 0x04, 0xfc, 0xfa, 0x09, 0xec, 0x08, 0xf2,
  0xf3, 0x30, 0xfc, 0x13, 0xe9, 0xeb, 0x04, 0xe6, 0x12, 0x0e, 0x19, 0x06,
  0x0e, 0x07, 0xe8, 0xfb, 0xfb, 0xfc, 0x13, 0x20, 0x1f, 0x0c, 0xe0, 0x17,
  0x29, 0x0b, 0xf7, 0xf5, 0xed, 0xed, 0xf4, 0xe2, 0x1c, 0xf6, 0xf1, 0xe3,
  0x0e, 0x37, 0xeb, 0xfc, 0xee, 0xea, 0x1d, 0xe8, 0x25, 0xee, 0x00, 0xfe,
  0x12, 0xea, 0xf6, 0x42, 0x11, 0x23, 0x15, 0xfc, 0xde, 0x20, 0x0d, 0x18,
  0x15, 0xed, 0xe1, 0x0c, 0x04, 0xe6, 0x1b, 0xfd, 0x18, 0x00, 0xe8, 0x16,
  0xf6, 0xed, 0xe7, 0xde, 0x14, 0x1d, 0x17, 0x1c, 0x21, 0xed, 0x04, 0xde,
  0xf5, 0x10, 0x0b, 0xe9, 0x1e, 0x1b, 0xfb, 0xe3, 0x20, 0x12, 0xfe, 0xff,
  0xf4, 0x13, 0x0c, 0x13, 0x12, 0xf0, 0x1c, 0xf3, 0x0e, 0xef, 0x07, 0x20,
  0x1f, 0xfa, 0xe6, 0x0c, 0xfc, 0xe9, 0xe6, 0xde, 0x0d, 0xfe, 0xfb, 0x1c,
  0x05, 0xfd, 0x10, 0x13, 0xeb, 0x1e, 0x09, 0x16, 0x03, 0xfd, 0x0f, 0x18,
  0x01, 0xfd, 0x22, 0x17, 0x1b, 0xdf, 0x0a, 0x21, 0xe1, 0x22, 0x1a, 0x1b,
  0x11, 0xdf, 0x17, 0x17, 0xfe, 0xdf, 0x20, 0xfc, 0xe3, 0x22, 0xfc, 0x09,
  0xe5, 0xf3, 0xe6, 0x17, 0xe5, 0xfc, 0xe9, 0x19, 0x00, 0x20, 0xf9, 0xfe,
  0x0b, 0x1b, 0x20, 0x01, 0xee, 0xec, 0xe9, 0x1d, 0xfe, 0x0a, 0xf0, 0x11,
  0xf9, 0x0a, 0x09, 0x02, 0x13, 0xea, 0xe4, 0xdf, 0x1c, 0xf4, 0x10, 0x12,
  0xfd, 0x05, 0xfc, 0x01, 0xe3, 0x02, 0x12, 0xf7, 0xfc, 0xe7, 0xe4, 0x18,
  0xe5, 0xed, 0x0a, 0x1d, 0x0f, 0xf8, 0x06, 0x07, 0xe2, 0x0e, 0xf7, 0x16,
  0x1f, 0x05, 0x14, 0x01, 0x19, 0x1f, 0xd4, 0x14, 0x18, 0xf7, 0x19, 0xf3,
  0xff, 0xf9, 0xe4, 0xce, 0xec, 0x09, 0x08, 0x09, 0xde, 0x31, 0xfb, 0xf4,
  0xe4, 0x21, 0xfb, 0xd4, 0x1c, 0xed, 0x08, 0x08, 0x02, 0xfd, 0x1d, 0x0a,
  0xdd, 0x17, 0xfc, 0x12, 0x10, 0x12, 0xde, 0xf7, 0xf1, 0xbf, 0xd4, 0xff,
  0x1d, 0xed, 0x03, 0x22, 0xed, 0xde, 0xfe, 0x35, 0x16, 0xfe, 0xff, 0xff,
  0x04, 0x00, 0x00, 0x00, 0x32, 0x00, 0x00, 0x00, 0x6b, 0x54, 0x04, 0x27,
  0xa4, 0x55, 0x3e, 0x52, 0xb1, 0x57, 0xee, 0x35, 0xd7, 0x3c, 0x96, 0x04,
  0x9f, 0xe2, 0x3e, 0xca, 0xe3, 0x30, 0x06, 0xde, 0xec, 0x97, 0x5f, 0xc1,
  0x00, 0xf4, 0x56, 0xcf, 0x38, 0x7f, 0xd6, 0x91, 0xa2, 0x51, 0x6c, 0x58,
  0x49, 0x5e, 0xb7, 0x40, 0xcb, 0x33, 0x9e, 0x65, 0xb4, 0x2f, 0x00, 0x00,
  0x56, 0xfe, 0xff, 0xff, 0x04, 0x00, 0x00, 0x00, 0xc8, 0x00, 0x00, 0x00,
  0x9a, 0x05, 0x00, 0x00, 0xd1, 0x01, 0x00, 0x00, 0xbb, 0x0a, 0x00, 0x00,
  0xe7, 0x08, 0x00, 0x00, 0x00, 0x00, 0x00, 0x00, 0xb0, 0xec, 0xff, 0xff,
  0x24, 0x02, 0x00, 0x00, 0xbb, 0xfa, 0xff, 0xff, 0x00, 0x00, 0x00, 0x00,
  0x16, 0xfe, 0xff, 0xff, 0x00, 0x00, 0x00, 0x00, 0x8f, 0xfd, 0xff, 0xff,
  0x00, 0x00, 0x00, 0x00, 0x76, 0xf6, 0xff, 0xff, 0x00, 0x00, 0x00, 0x00,
  0xbe, 0x22, 0x00, 0x00, 0x00, 0x00, 0x00, 0x00, 0x00, 0x00, 0x00, 0x00,
  0x34, 0xfd, 0xff, 0xff, 0x00, 0x00, 0x00, 0x00, 0x00, 0x00, 0x00, 0x00,
  0x90, 0xfb, 0xff, 0xff, 0xbd, 0x26, 0x00, 0x00, 0x00, 0x00, 0x00, 0x00,
  0x00, 0x00, 0x00, 0x00, 0x00, 0x00, 0x00, 0x00, 0x41, 0x03, 0x00, 0x00,
  0x00, 0x00, 0x00, 0x00, 0x00, 0x00, 0x00, 0x00, 0x53, 0x25, 0x00, 0x00,
  0x74, 0xfb, 0xff, 0xff, 0x00, 0x00, 0x00, 0x00, 0x04, 0x00, 0x00, 0x00,
  0xf4, 0xc7, 0xff, 0xff, 0x00, 0x00, 0x00, 0x00, 0x00, 0x00, 0x00, 0x00,
  0x00, 0x00, 0x00, 0x00, 0x3f, 0xfc, 0xff, 0xff, 0x3c, 0xf1, 0xff, 0xff,
  0x0b, 0x07, 0x00, 0x00, 0x25, 0xff, 0xff, 0xff, 0xd2, 0xed, 0xff, 0xff,
  0x00, 0x00, 0x00, 0x00, 0x4f, 0xf4, 0xff, 0xff, 0x00, 0x00, 0x00, 0x00,
  0xea, 0xfe, 0xff, 0xff, 0x00, 0x00, 0x00, 0x00, 0x7f, 0xf6, 0xff, 0xff,
  0x00, 0x00, 0x00, 0x00, 0x28, 0xf8, 0xff, 0xff, 0x2a, 0xff, 0xff, 0xff,
  0x04, 0x00, 0x00, 0x00, 0xc8, 0x00, 0x00, 0x00, 0x00, 0x00, 0x00, 0x00,
  0xee, 0x03, 0x00, 0x00, 0xf8, 0xfd, 0xff, 0xff, 0x67, 0x05, 0x00, 0x00,
  0xac, 0xff, 0xff, 0xff, 0x53, 0x11, 0x00, 0x00, 0x27, 0xf4, 0xff, 0xff,
  0x62, 0xf8, 0xff, 0xff, 0xb1, 0x03, 0x00, 0x00, 0xd8, 0xfe, 0xff, 0xff,
  0x21, 0xfb, 0xff, 0xff, 0x07, 0x04, 0x00, 0x00, 0x00, 0x00, 0x00, 0x00,
  0x26, 0x04, 0x00, 0x00, 0xab, 0xf9, 0xff, 0xff, 0xc1, 0x21, 0x00, 0x00,
  0x01, 0xfb, 0xff, 0xff, 0xdf, 0x25, 0x00, 0x00, 0xab, 0x09, 0x00, 0x00,
  0x97, 0xfc, 0xff, 0xff, 0x02, 0x0e, 0x00, 0x00, 0x1e, 0x05, 0x00, 0x00,
  0xab, 0xff, 0xff, 0xff, 0x0f, 0xef, 0xff, 0xff, 0x60, 0xfd, 0xff, 0xff,
  0xc6, 0xf1, 0xff, 0xff, 0xdb, 0x04, 0x00, 0x00, 0x02, 0xfe, 0xff, 0xff,
  0x9f, 0xff, 0xff, 0xff, 0xb0, 0xfc, 0xff, 0xff, 0x42, 0x02, 0x00, 0x00,
  0xd0, 0xfa, 0xff, 0xff, 0x00, 0x00, 0x00, 0x00, 0x3b, 0x09, 0x00, 0x00,
  0xbc, 0x03, 0x00, 0x00, 0x32, 0xff, 0xff, 0xff, 0x2b, 0x11, 0x00, 0x00,
  0xe2, 0xff, 0xff, 0xff, 0x00, 0x00, 0x00, 0x00, 0xa4, 0x04, 0x00, 0x00,
  0x15, 0xfe, 0xff, 0xff, 0x24, 0x06, 0x00, 0x00, 0xb3, 0x0f, 0x00, 0x00,
  0x1e, 0xfc, 0xff, 0xff, 0xf1, 0x02, 0x00, 0x00, 0xd8, 0x07, 0x00, 0x00,
  0xac, 0xff, 0xff, 0xff, 0xc7, 0xfb, 0xff, 0xff, 0x00, 0x00, 0x00, 0x00,
  0xe3, 0x0e, 0x00, 0x00, 0x00, 0x00, 0x06, 0x00, 0x08, 0x00, 0x04, 0x00,
  0x06, 0x00, 0x00, 0x00, 0x04, 0x00, 0x00, 0x00, 0x04, 0x00, 0x00, 0x00,
  0x2a, 0xfc, 0xff, 0xff, 0x84, 0xff, 0xff, 0xff, 0x88, 0xff, 0xff, 0xff,
  0x0f, 0x00, 0x00, 0x00, 0x4d, 0x4c, 0x49, 0x52, 0x20, 0x43, 0x6f, 0x6e,
  0x76, 0x65, 0x72, 0x74, 0x65, 0x64, 0x2e, 0x00, 0x01, 0x00, 0x00, 0x00,
  0x14, 0x00, 0x00, 0x00, 0x00, 0x00, 0x0e, 0x00, 0x18, 0x00, 0x14, 0x00,
  0x10, 0x00, 0x0c, 0x00, 0x08, 0x00, 0x04, 0x00, 0x0e, 0x00, 0x00, 0x00,
  0x14, 0x00, 0x00, 0x00, 0x1c, 0x00, 0x00, 0x00, 0xdc, 0x00, 0x00, 0x00,
  0xe0, 0x00, 0x00, 0x00, 0xe4, 0x00, 0x00, 0x00, 0x04, 0x00, 0x00, 0x00,
  0x6d, 0x61, 0x69, 0x6e, 0x00, 0x00, 0x00, 0x00, 0x03, 0x00, 0x00, 0x00,
  0x84, 0x00, 0x00, 0x00, 0x3c, 0x00, 0x00, 0x00, 0x04, 0x00, 0x00, 0x00,
  0x96, 0xff, 0xff, 0xff, 0x14, 0x00, 0x00, 0x00, 0x00, 0x00, 0x00, 0x08,
  0x10, 0x00, 0x00, 0x00, 0x14, 0x00, 0x00, 0x00, 0x04, 0x00, 0x04, 0x00,
  0x04, 0x00, 0x00, 0x00, 0x01, 0x00, 0x00, 0x00, 0x09, 0x00, 0x00, 0x00,
  0x03, 0x00, 0x00, 0x00, 0x08, 0x00, 0x00, 0x00, 0x06, 0x00, 0x00, 0x00,
  0x01, 0x00, 0x00, 0x00, 0xca, 0xff, 0xff, 0xff, 0x10, 0x00, 0x00, 0x00,
  0x00, 0x00, 0x00, 0x08, 0x10, 0x00, 0x00, 0x00, 0x14, 0x00, 0x00, 0x00,
  0xba, 0xff, 0xff, 0xff, 0x00, 0x00, 0x00, 0x01, 0x01, 0x00, 0x00, 0x00,
  0x08, 0x00, 0x00, 0x00, 0x03, 0x00, 0x00, 0x00, 0x07, 0x00, 0x00, 0x00,
  0x05, 0x00, 0x00, 0x00, 0x02, 0x00, 0x00, 0x00, 0x00, 0x00, 0x0e, 0x00,
  0x16, 0x00, 0x00, 0x00, 0x10, 0x00, 0x0c, 0x00, 0x0b, 0x00, 0x04, 0x00,
  0x0e, 0x00, 0x00, 0x00, 0x18, 0x00, 0x00, 0x00, 0x00, 0x00, 0x00, 0x08,
  0x18, 0x00, 0x00, 0x00, 0x1c, 0x00, 0x00, 0x00, 0x00, 0x00, 0x06, 0x00,
  0x08, 0x00, 0x07, 0x00, 0x06, 0x00, 0x00, 0x00, 0x00, 0x00, 0x00, 0x01,
  0x01, 0x00, 0x00, 0x00, 0x07, 0x00, 0x00, 0x00, 0x03, 0x00, 0x00, 0x00,
  0x00, 0x00, 0x00, 0x00, 0x04, 0x00, 0x00, 0x00, 0x03, 0x00, 0x00, 0x00,
  0x01, 0x00, 0x00, 0x00, 0x09, 0x00, 0x00, 0x00, 0x01, 0x00, 0x00, 0x00,
  0x00, 0x00, 0x00, 0x00, 0x0a, 0x00, 0x00, 0x00, 0x4c, 0x04, 0x00, 0x00,
  0xd0, 0x03, 0x00, 0x00, 0x68, 0x03, 0x00, 0x00, 0x0c, 0x03, 0x00, 0x00,
  0x98, 0x02, 0x00, 0x00, 0x24, 0x02, 0x00, 0x00, 0xb0, 0x01, 0x00, 0x00,
  0x24, 0x01, 0x00, 0x00, 0x98, 0x00, 0x00, 0x00, 0x04, 0x00, 0x00, 0x00,
  0xf0, 0xfb, 0xff, 0xff, 0x18, 0x00, 0x00, 0x00, 0x20, 0x00, 0x00, 0x00,
  0x54, 0x00, 0x00, 0x00, 0x0a, 0x00, 0x00, 0x00, 0x00, 0x00, 0x00, 0x09,
  0x6c, 0x00, 0x00, 0x00, 0x02, 0x00, 0x00, 0x00, 0xff, 0xff, 0xff, 0xff,
  0x01, 0x00, 0x00, 0x00, 0xdc, 0xfb, 0xff, 0xff, 0x10, 0x00, 0x00, 0x00,
  0x18, 0x00, 0x00, 0x00, 0x1c, 0x00, 0x00, 0x00, 0x20, 0x00, 0x00, 0x00,
  0x01, 0x00, 0x00, 0x00, 0xfa, 0xff, 0xff, 0xff, 0xff, 0xff, 0xff, 0xff,
  0x01, 0x00, 0x00, 0x00, 0xbd, 0x43, 0x03, 0x3c, 0x01, 0x00, 0x00, 0x00,
  0x18, 0x1a, 0x88, 0x3f, 0x01, 0x00, 0x00, 0x00, 0xb5, 0xcd, 0x7a, 0xbf,
  0x1e, 0x00, 0x00, 0x00, 0x53, 0x74, 0x61, 0x74, 0x65, 0x66, 0x75, 0x6c,
  0x50, 0x61, 0x72, 0x74, 0x69, 0x74, 0x69, 0x6f, 0x6e, 0x65, 0x64, 0x43,
  0x61, 0x6c, 0x6c, 0x3a, 0x30, 0x5f, 0x69, 0x6e, 0x74, 0x38, 0x00, 0x00,
  0x02, 0x00, 0x00, 0x00, 0x01, 0x00, 0x00, 0x00, 0x01, 0x00, 0x00, 0x00,
  0x80, 0xfc, 0xff, 0xff, 0x18, 0x00, 0x00, 0x00, 0x20, 0x00, 0x00, 0x00,
  0x54, 0x00, 0x00, 0x00, 0x09, 0x00, 0x00, 0x00, 0x00, 0x00, 0x00, 0x09,
  0x64, 0x00, 0x00, 0x00, 0x02, 0x00, 0x00, 0x00, 0xff, 0xff, 0xff, 0xff,
  0x32, 0x00, 0x00, 0x00, 0x6c, 0xfc, 0xff, 0xff, 0x10, 0x00, 0x00, 0x00,
  0x18, 0x00, 0x00, 0x00, 0x1c, 0x00, 0x00, 0x00, 0x20, 0x00, 0x00, 0x00,
  0x01, 0x00, 0x00, 0x00, 0x80, 0xff, 0xff, 0xff, 0xff, 0xff, 0xff, 0xff,
  0x01, 0x00, 0x00, 0x00, 0xb0, 0xe9, 0x1f, 0x3c, 0x01, 0x00, 0x00, 0x00,
  0xc6, 0x49, 0x1f, 0x40, 0x01, 0x00, 0x00, 0x00, 0x00, 0x00, 0x00, 0x00,
  0x14, 0x00, 0x00, 0x00, 0x74, 0x66, 0x6c, 0x2e, 0x66, 0x75, 0x6c, 0x6c,
  0x79, 0x5f, 0x63, 0x6f, 0x6e, 0x6e, 0x65, 0x63, 0x74, 0x65, 0x64, 0x31,
  0x00, 0x00, 0x00, 0x00, 0x02, 0x00, 0x00, 0x00, 0x01, 0x00, 0x00, 0x00,
  0x32, 0x00, 0x00, 0x00, 0x08, 0xfd, 0xff, 0xff, 0x18, 0x00, 0x00, 0x00,
  0x20, 0x00, 0x00, 0x00, 0x58, 0x00, 0x00, 0x00, 0x08, 0x00, 0x00, 0x00,
  0x00, 0x00, 0x00, 0x09, 0x64, 0x00, 0x00, 0x00, 0x02, 0x00, 0x00, 0x00,
  0xff, 0xff, 0xff, 0xff, 0x32, 0x00, 0x00, 0x00, 0xf4, 0xfc, 0xff, 0xff,
  0x10, 0x00, 0x00, 0x00, 0x1c, 0x00, 0x00, 0x00, 0x20, 0x00, 0x00, 0x00,
  0x24, 0x00, 0x00, 0x00, 0x01, 0x00, 0x00, 0x00, 0x80, 0xff, 0xff, 0xff,
  0xff, 0xff, 0xff, 0xff, 0x00, 0x00, 0x00, 0x00, 0x01, 0x00, 0x00, 0x00,
  0x1e, 0xe7, 0x0a, 0x3c, 0x01, 0x00, 0x00, 0x00, 0x37, 0x5c, 0x0a, 0x40,
  0x01, 0x00, 0x00, 0x00, 0x00, 0x00, 0x00, 0x00, 0x13, 0x00, 0x00, 0x00,
  0x74, 0x66, 0x6c, 0x2e, 0x66, 0x75, 0x6c, 0x6c, 0x79, 0x5f, 0x63, 0x6f,
  0x6e, 0x6e, 0x65, 0x63, 0x74, 0x65, 0x64, 0x00, 0x02, 0x00, 0x00, 0x00,
  0x01, 0x00, 0x00, 0x00, 0x32, 0x00, 0x00, 0x00, 0x02, 0xfe, 0xff, 0xff,
  0x14, 0x00, 0x00, 0x00, 0x48, 0x00, 0x00, 0x00, 0x07, 0x00, 0x00, 0x00,
  0x00, 0x00, 0x00, 0x09, 0x50, 0x00, 0x00, 0x00, 0x6c, 0xfd, 0xff, 0xff,
  0x10, 0x00, 0x00, 0x00, 0x18, 0x00, 0x00, 0x00, 0x1c, 0x00, 0x00, 0x00,
  0x20, 0x00, 0x00, 0x00, 0x01, 0x00, 0x00, 0x00, 0x00, 0x00, 0x00, 0x00,
  0x00, 0x00, 0x00, 0x00, 0x01, 0x00, 0x00, 0x00, 0x63, 0xa6, 0x0a, 0x3c,
  0x01, 0x00, 0x00, 0x00, 0x16, 0x91, 0x89, 0x3f, 0x01, 0x00, 0x00, 0x00,
  0xb3, 0xbd, 0x49, 0xbf, 0x0d, 0x00, 0x00, 0x00, 0x73, 0x74, 0x64, 0x2e,
  0x63, 0x6f, 0x6e, 0x73, 0x74, 0x61, 0x6e, 0x74, 0x32, 0x00, 0x00, 0x00,
  0x02, 0x00, 0x00, 0x00, 0x01, 0x00, 0x00, 0x00, 0x32, 0x00, 0x00, 0x00,
  0x72, 0xfe, 0xff, 0xff, 0x14, 0x00, 0x00, 0x00, 0x48, 0x00, 0x00, 0x00,
  0x06, 0x00, 0x00, 0x00, 0x00, 0x00, 0x00, 0x09, 0x50, 0x00, 0x00, 0x00,
  0xdc, 0xfd, 0xff, 0xff, 0x10, 0x00, 0x00, 0x00, 0x18, 0x00, 0x00, 0x00,
  0x1c, 0x00, 0x00, 0x00, 0x20, 0x00, 0x00, 0x00, 0x01, 0x00, 0x00, 0x00,
  0x00, 0x00, 0x00, 0x00, 0x00, 0x00, 0x00, 0x00, 0x01, 0x00, 0x00, 0x00,
  0x01, 0x94, 0xe7, 0x3b, 0x01, 0x00, 0x00, 0x00, 0xd9, 0xc4, 0x65, 0x3f,
  0x01, 0x00, 0x00, 0x00, 0xf0, 0xd3, 0x51, 0xbf, 0x0d, 0x00, 0x00, 0x00,
  0x73, 0x74, 0x64, 0x2e, 0x63, 0x6f, 0x6e, 0x73, 0x74, 0x61, 0x6e, 0x74,
  0x31, 0x00, 0x00, 0x00, 0x02, 0x00, 0x00, 0x00, 0x32, 0x00, 0x00, 0x00,
  0x32, 0x00, 0x00, 0x00, 0xe2, 0xfe, 0xff, 0xff, 0x14, 0x00, 0x00, 0x00,
  0x48, 0x00, 0x00, 0x00, 0x05, 0x00, 0x00, 0x00, 0x00, 0x00, 0x00, 0x09,
  0x50, 0x00, 0x00, 0x00, 0x4c, 0xfe, 0xff, 0xff, 0x10, 0x00, 0x00, 0x00,
  0x18, 0x00, 0x00, 0x00, 0x1c, 0x00, 0x00, 0x00, 0x20, 0x00, 0x00, 0x00,
  0x01, 0x00, 0x00, 0x00, 0x00, 0x00, 0x00, 0x00, 0x00, 0x00, 0x00, 0x00,
  0x01, 0x00, 0x00, 0x00, 0xb8, 0x89, 0x48, 0x3b, 0x01, 0x00, 0x00, 0x00,
  0xa5, 0xf8, 0xc6, 0x3e, 0x01, 0x00, 0x00, 0x00, 0xc4, 0x79, 0xae, 0xbe,
  0x0c, 0x00, 0x00, 0x00, 0x73, 0x74, 0x64, 0x2e, 0x63, 0x6f, 0x6e, 0x73,
  0x74, 0x61, 0x6e, 0x74, 0x00, 0x00, 0x00, 0x00, 0x02, 0x00, 0x00, 0x00,
  0x32, 0x00, 0x00, 0x00, 0x01, 0x00, 0x00, 0x00, 0x52, 0xff, 0xff, 0xff,
  0x14, 0x00, 0x00, 0x00, 0x34, 0x00, 0x00, 0x00, 0x04, 0x00, 0x00, 0x00,
  0x00, 0x00, 0x00, 0x02, 0x3c, 0x00, 0x00, 0x00, 0x44, 0xff, 0xff, 0xff,
  0x08, 0x00, 0x00, 0x00, 0x14, 0x00, 0x00, 0x00, 0x01, 0x00, 0x00, 0x00,
  0x00, 0x00, 0x00, 0x00, 0x00, 0x00, 0x00, 0x00, 0x00, 0x00, 0x00, 0x00,
  0x01, 0x00, 0x00, 0x00, 0x4d, 0xb2, 0x9d, 0x38, 0x0c, 0x00, 0x00, 0x00,
  0x64, 0x65, 0x6e, 0x73, 0x65, 0x5f, 0x36, 0x2f, 0x62, 0x69, 0x61, 0x73,
  0x00, 0x00, 0x00, 0x00, 0x01, 0x00, 0x00, 0x00, 0x32, 0x00, 0x00, 0x00,
  0xaa, 0xff, 0xff, 0xff, 0x14, 0x00, 0x00, 0x00, 0x30, 0x00, 0x00, 0x00,
  0x03, 0x00, 0x00, 0x00, 0x00, 0x00, 0x00, 0x02, 0x38, 0x00, 0x00, 0x00,
  0x9c, 0xff, 0xff, 0xff, 0x08, 0x00, 0x00, 0x00, 0x10, 0x00, 0x00, 0x00,
  0x01, 0x00, 0x00, 0x00, 0x00, 0x00, 0x00, 0x00, 0x00, 0x00, 0x00, 0x00,
  0x01, 0x00, 0x00, 0x00, 0xb4, 0x4d, 0x7b, 0x38, 0x0c, 0x00, 0x00, 0x00,
  0x64, 0x65, 0x6e, 0x73, 0x65, 0x5f, 0x37, 0x2f, 0x62, 0x69, 0x61, 0x73,
  0x00, 0x00, 0x00, 0x00, 0x01, 0x00, 0x00, 0x00, 0x32, 0x00, 0x00, 0x00,
  0x00, 0x00, 0x0e, 0x00, 0x18, 0x00, 0x14, 0x00, 0x13, 0x00, 0x0c, 0x00,
  0x08, 0x00, 0x04, 0x00, 0x0e, 0x00, 0x00, 0x00, 0x20, 0x00, 0x00, 0x00,
  0x40, 0x00, 0x00, 0x00, 0x02, 0x00, 0x00, 0x00, 0x00, 0x00, 0x00, 0x02,
  0x48, 0x00, 0x00, 0x00, 0x0c, 0x00, 0x0c, 0x00, 0x00, 0x00, 0x00, 0x00,
  0x08, 0x00, 0x04, 0x00, 0x0c, 0x00, 0x00, 0x00, 0x08, 0x00, 0x00, 0x00,
  0x14, 0x00, 0x00, 0x00, 0x01, 0x00, 0x00, 0x00, 0x00, 0x00, 0x00, 0x00,
  0x00, 0x00, 0x00, 0x00, 0x00, 0x00, 0x00, 0x00, 0x01, 0x00, 0x00, 0x00,
  0xd0, 0x37, 0xad, 0x38, 0x0c, 0x00, 0x00, 0x00, 0x64, 0x65, 0x6e, 0x73,
  0x65, 0x5f, 0x38, 0x2f, 0x62, 0x69, 0x61, 0x73, 0x00, 0x00, 0x00, 0x00,
  0x01, 0x00, 0x00, 0x00, 0x01, 0x00, 0x00, 0x00, 0x14, 0x00, 0x1c, 0x00,
  0x18, 0x00, 0x17, 0x00, 0x10, 0x00, 0x0c, 0x00, 0x08, 0x00, 0x00, 0x00,
  0x00, 0x00, 0x04, 0x00, 0x14, 0x00, 0x00, 0x00, 0x18, 0x00, 0x00, 0x00,
  0x2c, 0x00, 0x00, 0x00, 0x64, 0x00, 0x00, 0x00, 0x01, 0x00, 0x00, 0x00,
  0x00, 0x00, 0x00, 0x09, 0x84, 0x00, 0x00, 0x00, 0x02, 0x00, 0x00, 0x00,
  0xff, 0xff, 0xff, 0xff, 0x01, 0x00, 0x00, 0x00, 0x0c, 0x00, 0x14, 0x00,
  0x10, 0x00, 0x0c, 0x00, 0x08, 0x00, 0x04, 0x00, 0x0c, 0x00, 0x00, 0x00,
  0x10, 0x00, 0x00, 0x00, 0x1c, 0x00, 0x00, 0x00, 0x20, 0x00, 0x00, 0x00,
  0x24, 0x00, 0x00, 0x00, 0x01, 0x00, 0x00, 0x00, 0x80, 0xff, 0xff, 0xff,
  0xff, 0xff, 0xff, 0xff, 0x00, 0x00, 0x00, 0x00, 0x01, 0x00, 0x00, 0x00,
  0x5d, 0x4f, 0xc9, 0x3c, 0x01, 0x00, 0x00, 0x00, 0x0e, 0x86, 0xc8, 0x40,
  0x01, 0x00, 0x00, 0x00, 0x00, 0x00, 0x00, 0x00, 0x24, 0x00, 0x00, 0x00,
  0x73, 0x65, 0x72, 0x76, 0x69, 0x6e, 0x67, 0x5f, 0x64, 0x65, 0x66, 0x61,
  0x75, 0x6c, 0x74, 0x5f, 0x64, 0x65, 0x6e, 0x73, 0x65, 0x5f, 0x36, 0x5f,
  0x69, 0x6e, 0x70, 0x75, 0x74, 0x3a, 0x30, 0x5f, 0x69, 0x6e, 0x74, 0x38,
  0x00, 0x00, 0x00, 0x00, 0x02, 0x00, 0x00, 0x00, 0x01, 0x00, 0x00, 0x00,
  0x01, 0x00, 0x00, 0x00, 0x03, 0x00, 0x00, 0x00, 0x40, 0x00, 0x00, 0x00,
  0x24, 0x00, 0x00, 0x00, 0x04, 0x00, 0x00, 0x00, 0xd8, 0xff, 0xff, 0xff,
  0x06, 0x00, 0x00, 0x00, 0x02, 0x00, 0x00, 0x00, 0x00, 0x00, 0x00, 0x06,
  0x0c, 0x00, 0x0c, 0x00, 0x0b, 0x00, 0x00, 0x00, 0x00, 0x00, 0x04, 0x00,
  0x0c, 0x00, 0x00, 0x00, 0x72, 0x00, 0x00, 0x00, 0x00, 0x00, 0x00, 0x72,
  0x0c, 0x00, 0x10, 0x00, 0x0f, 0x00, 0x00, 0x00, 0x08, 0x00, 0x04, 0x00,
  0x0c, 0x00, 0x00, 0x00, 0x09, 0x00, 0x00, 0x00, 0x04, 0x00, 0x00, 0x00,
  0x00, 0x00, 0x00, 0x09
};
unsigned int g_model_len = 5080;
*/
