/*
 * LSTM:16, Dense:30
 */

unsigned char _content_dense_model_tflite[] = {
  0x1c, 0x00, 0x00, 0x00, 0x54, 0x46, 0x4c, 0x33, 0x00, 0x00, 0x12, 0x00,
  0x1c, 0x00, 0x04, 0x00, 0x08, 0x00, 0x0c, 0x00, 0x10, 0x00, 0x14, 0x00,
  0x00, 0x00, 0x18, 0x00, 0x12, 0x00, 0x00, 0x00, 0x03, 0x00, 0x00, 0x00,
  0x18, 0x0d, 0x00, 0x00, 0xa4, 0x09, 0x00, 0x00, 0x8c, 0x09, 0x00, 0x00,
  0x3c, 0x00, 0x00, 0x00, 0x04, 0x00, 0x00, 0x00, 0x01, 0x00, 0x00, 0x00,
  0x0c, 0x00, 0x00, 0x00, 0x08, 0x00, 0x0c, 0x00, 0x04, 0x00, 0x08, 0x00,
  0x08, 0x00, 0x00, 0x00, 0x08, 0x00, 0x00, 0x00, 0x08, 0x00, 0x00, 0x00,
  0x13, 0x00, 0x00, 0x00, 0x6d, 0x69, 0x6e, 0x5f, 0x72, 0x75, 0x6e, 0x74,
  0x69, 0x6d, 0x65, 0x5f, 0x76, 0x65, 0x72, 0x73, 0x69, 0x6f, 0x6e, 0x00,
  0x09, 0x00, 0x00, 0x00, 0x3c, 0x09, 0x00, 0x00, 0x28, 0x09, 0x00, 0x00,
  0x9c, 0x08, 0x00, 0x00, 0x78, 0x08, 0x00, 0x00, 0xe4, 0x00, 0x00, 0x00,
  0x50, 0x00, 0x00, 0x00, 0x44, 0x00, 0x00, 0x00, 0x30, 0x00, 0x00, 0x00,
  0x04, 0x00, 0x00, 0x00, 0x86, 0xf7, 0xff, 0xff, 0x04, 0x00, 0x00, 0x00,
  0x10, 0x00, 0x00, 0x00, 0x31, 0x2e, 0x35, 0x2e, 0x30, 0x00, 0x00, 0x00,
  0x00, 0x00, 0x00, 0x00, 0x00, 0x00, 0x00, 0x00, 0x00, 0x00, 0x00, 0x00,
  0x00, 0x00, 0x00, 0x00, 0x00, 0x00, 0x00, 0x00, 0xa4, 0xf3, 0xff, 0xff,
  0x00, 0x00, 0x00, 0x00, 0x00, 0x00, 0x00, 0x00, 0x00, 0x00, 0x00, 0x00,
  0xb4, 0xf3, 0xff, 0xff, 0x00, 0x00, 0x00, 0x00, 0xc6, 0xf7, 0xff, 0xff,
  0x04, 0x00, 0x00, 0x00, 0x78, 0x00, 0x00, 0x00, 0xd0, 0x52, 0xab, 0xbe,
  0xb9, 0x65, 0xda, 0xbe, 0x5f, 0xf6, 0x64, 0xbe, 0x17, 0xd8, 0x1f, 0xbf,
  0x6b, 0xcb, 0x1e, 0xbf, 0x15, 0x59, 0x14, 0xbf, 0xc8, 0x9f, 0x6d, 0xbd,
  0xc5, 0xf8, 0xb5, 0x3e, 0xce, 0xd3, 0x40, 0xbf, 0x91, 0x12, 0x4e, 0xbe,
  0xb0, 0x78, 0x1b, 0xbe, 0xfd, 0xeb, 0xce, 0xbe, 0xf1, 0x36, 0x8a, 0x3e,
  0x71, 0xc6, 0x2d, 0xbf, 0x8e, 0x97, 0x4b, 0xbe, 0x40, 0xd0, 0x3d, 0x3f,
  0x53, 0xee, 0x0b, 0x3f, 0x4e, 0x6e, 0x95, 0x3e, 0xe5, 0x7d, 0xbe, 0xbe,
  0xa5, 0xb1, 0x8e, 0xbe, 0x80, 0x13, 0xfc, 0xbe, 0xdd, 0xc9, 0x9b, 0x3f,
  0xed, 0x0e, 0xeb, 0xbe, 0xfd, 0x75, 0xad, 0xbe, 0xd3, 0xa1, 0x32, 0xbf,
  0xe1, 0x34, 0x4f, 0x3f, 0x95, 0x92, 0x9d, 0x3f, 0xa8, 0x43, 0x1b, 0xbf,
  0xb5, 0xfe, 0x42, 0x3f, 0x71, 0xf4, 0xf0, 0xbe, 0x00, 0x00, 0x00, 0x00,
  0x00, 0x00, 0x00, 0x00, 0x00, 0x00, 0x00, 0x00, 0x56, 0xf8, 0xff, 0xff,
  0x04, 0x00, 0x00, 0x00, 0x80, 0x07, 0x00, 0x00, 0xb8, 0xed, 0x1c, 0x3d,
  0xa6, 0x86, 0x7a, 0x3e, 0x56, 0x3b, 0x3b, 0x3e, 0x55, 0xd7, 0x8f, 0x3e,
  0xbe, 0xbb, 0x4a, 0xbe, 0x04, 0x15, 0x48, 0xbe, 0x12, 0x65, 0x1f, 0xbe,
  0xa3, 0x6f, 0xb0, 0x3e, 0xe1, 0x17, 0x08, 0xbe, 0x00, 0x93, 0xa7, 0xbb,
  0x30, 0x4f, 0x65, 0x3d, 0x46, 0x55, 0x8b, 0xbe, 0x4a, 0xd9, 0x2d, 0xbe,
  0x38, 0xe2, 0x6d, 0xbd, 0xb0, 0xb2, 0x93, 0xbc, 0x98, 0x57, 0xcc, 0xbd,
  0xa7, 0x5b, 0x1a, 0x3e, 0xa1, 0x8f, 0xc1, 0xbe, 0x1c, 0x53, 0xb2, 0xbe,
  0xbb, 0xd6, 0xa5, 0x3e, 0x57, 0x74, 0xb3, 0xbe, 0xe9, 0x7e, 0xe4, 0x3d,
  0xfc, 0x5e, 0xc8, 0xbe, 0x0c, 0xc3, 0x9c, 0x3e, 0xc5, 0xf6, 0x13, 0x3f,
  0xc1, 0xf9, 0x8d, 0x3d, 0x83, 0x0f, 0x03, 0x3f, 0x3a, 0x90, 0xfd, 0x3d,
  0xdb, 0xe5, 0x0f, 0xbe, 0x0d, 0xb2, 0xee, 0xbe, 0x59, 0x8c, 0x1d, 0xbd,
  0x29, 0x38, 0x1b, 0x3e, 0xbb, 0x6f, 0x41, 0x3e, 0x9f, 0xea, 0xb6, 0xbd,
  0x5b, 0xac, 0xda, 0xbe, 0x04, 0x37, 0xe9, 0x3e, 0x39, 0x2f, 0xe1, 0xbe,
  0x18, 0x97, 0x9e, 0x3e, 0xea, 0x62, 0x3d, 0x3d, 0x0a, 0x45, 0xd4, 0x3e,
  0xe9, 0x91, 0x5d, 0xbd, 0x7a, 0xb5, 0x3f, 0x3e, 0xb0, 0x9e, 0x00, 0x3f,
  0xed, 0x73, 0xa7, 0x3d, 0xb5, 0x16, 0xbf, 0xbe, 0x5d, 0xf3, 0x0c, 0xbe,
  0x2f, 0x9b, 0x5a, 0xbd, 0x81, 0x34, 0xf3, 0xbd, 0x6c, 0x47, 0xc4, 0x3e,
  0x70, 0x17, 0x44, 0x3d, 0x46, 0x2f, 0xc7, 0xbe, 0x06, 0x55, 0xb9, 0x3e,
  0xd2, 0x75, 0xd2, 0xbe, 0x7c, 0x62, 0x63, 0xbd, 0x20, 0x62, 0xac, 0xbe,
  0xd3, 0xff, 0x64, 0x3e, 0x81, 0xe7, 0x43, 0xbe, 0xbc, 0xde, 0x49, 0xbe,
  0xa0, 0xa7, 0x04, 0xbe, 0x2d, 0x64, 0x1f, 0xbe, 0x24, 0x23, 0x19, 0xbe,
  0x58, 0xc6, 0xb1, 0xbc, 0x9c, 0x64, 0xe7, 0x3e, 0xb9, 0xce, 0xe9, 0x3e,
  0x35, 0x79, 0xa1, 0xbd, 0xf4, 0x2a, 0x1f, 0xbe, 0x5a, 0x01, 0x0b, 0xbf,
  0x41, 0xef, 0x42, 0x3c, 0xfe, 0xe2, 0xab, 0xbe, 0xb3, 0xc5, 0xe7, 0xbd,
  0xd5, 0x43, 0x45, 0xbd, 0xdf, 0x4b, 0xac, 0x3d, 0xe1, 0x62, 0x07, 0x3f,
  0x14, 0x83, 0x41, 0xbe, 0x1d, 0xc9, 0xd4, 0x3e, 0xff, 0x45, 0x97, 0xbd,
  0x2b, 0x5c, 0xa6, 0xbe, 0xc5, 0x9f, 0x61, 0xbe, 0xf8, 0x3c, 0xd6, 0xbd,
  0x47, 0x41, 0x9e, 0x3e, 0xd6, 0xea, 0x50, 0xbe, 0xc3, 0x6e, 0xa3, 0x3d,
  0xf1, 0x5f, 0xc5, 0x3e, 0x8f, 0x01, 0xa9, 0x3c, 0x57, 0xea, 0xcb, 0x3e,
  0xab, 0x66, 0x99, 0xbe, 0x86, 0x9f, 0xf6, 0xbd, 0x37, 0xaa, 0xf6, 0xbd,
  0xa6, 0x3a, 0xb4, 0xbe, 0x3b, 0x0f, 0xe6, 0xbe, 0xc2, 0x4d, 0x7d, 0xbd,
  0x37, 0x45, 0x36, 0xbe, 0x1d, 0xfc, 0x2b, 0x3e, 0x7d, 0x7b, 0xda, 0xbe,
  0xbb, 0x29, 0x5c, 0x3e, 0xe6, 0xc0, 0x86, 0xbd, 0xc0, 0x19, 0x93, 0xbc,
  0xc2, 0x54, 0x2c, 0x3e, 0x5c, 0x29, 0xa2, 0xbe, 0x88, 0xbf, 0x3f, 0x3d,
  0xe6, 0x3b, 0xf9, 0xbd, 0x56, 0x6a, 0x73, 0x3e, 0x40, 0xc4, 0xde, 0x3b,
  0x33, 0x7f, 0x8f, 0xbe, 0x38, 0xb7, 0x8d, 0xbd, 0x7a, 0x53, 0x51, 0xbe,
  0x9a, 0x4e, 0x0d, 0x3e, 0xf9, 0x54, 0x9e, 0xbe, 0xda, 0xcb, 0x18, 0x3e,
  0x66, 0xd4, 0x65, 0x3e, 0x7d, 0x75, 0xab, 0xbe, 0xef, 0xe2, 0x82, 0xbe,
  0xd2, 0x18, 0x51, 0x3e, 0x11, 0xd6, 0x18, 0x3d, 0xa9, 0xb9, 0x72, 0xbe,
  0x92, 0xf9, 0x8d, 0xbd, 0x3e, 0x18, 0x95, 0x3e, 0x73, 0x17, 0x58, 0x3e,
  0x0f, 0xe2, 0x9f, 0x3c, 0xfb, 0xf3, 0xe6, 0x3d, 0xda, 0x4f, 0x15, 0xbd,
  0x39, 0xcd, 0x3e, 0x3e, 0x2f, 0x70, 0x7a, 0x3e, 0xd4, 0x8c, 0xbb, 0x3d,
  0xe9, 0x3d, 0x4b, 0x3e, 0x58, 0x95, 0x04, 0xbe, 0x7a, 0x12, 0x3b, 0xbd,
  0x6b, 0x6b, 0x88, 0xbe, 0x66, 0x56, 0xfa, 0x3d, 0x42, 0x12, 0xf9, 0xbe,
  0x79, 0x10, 0xe9, 0xbd, 0xae, 0x66, 0x85, 0x3e, 0xa5, 0x3e, 0x6e, 0x3d,
  0xed, 0x25, 0x03, 0x3f, 0x4d, 0x15, 0xe5, 0xbd, 0x8b, 0x36, 0x0a, 0xbe,
  0x09, 0xa2, 0xd3, 0x3e, 0xcf, 0x2a, 0x4b, 0x3d, 0x0f, 0x55, 0xa6, 0x3e,
  0xe6, 0x68, 0x67, 0x3e, 0x14, 0xf4, 0xf0, 0xbe, 0x2d, 0xa4, 0xc8, 0xbe,
  0xa2, 0x8f, 0x68, 0x3d, 0xcd, 0x1f, 0x2c, 0xbd, 0xfa, 0xf2, 0x03, 0xbe,
  0x4f, 0x90, 0x48, 0x3e, 0xe6, 0x27, 0x5b, 0x3e, 0x8e, 0xe3, 0x80, 0xbd,
  0x75, 0x4a, 0x86, 0x3e, 0xe6, 0x91, 0x06, 0xbf, 0x2d, 0x3e, 0x93, 0xbd,
  0x83, 0xf6, 0xf9, 0x3d, 0x76, 0x34, 0x90, 0xbe, 0x62, 0x26, 0xe2, 0x3b,
  0xc6, 0xb2, 0x02, 0xbf, 0x80, 0x0f, 0x88, 0xbe, 0xc7, 0xc6, 0x37, 0xbc,
  0x7d, 0x6e, 0x7b, 0x3e, 0xf1, 0xe2, 0x4d, 0x3d, 0x4a, 0xf8, 0x81, 0xbe,
  0xbc, 0x4c, 0xbf, 0x3d, 0xed, 0xa8, 0x33, 0xbe, 0xda, 0x18, 0xc0, 0x3e,
  0x54, 0xb9, 0x01, 0x3e, 0x5b, 0x8c, 0xf0, 0x3e, 0x13, 0xe6, 0xd4, 0x3d,
  0x2b, 0x42, 0x87, 0x3e, 0xa0, 0xb3, 0x5d, 0xbd, 0x64, 0x90, 0x0e, 0xbf,
  0x53, 0x73, 0x06, 0xbf, 0xfa, 0x19, 0x89, 0xbe, 0x20, 0x51, 0x29, 0x37,
  0x3b, 0xf2, 0xbb, 0x3d, 0x9d, 0x54, 0x01, 0xbc, 0x3c, 0x1a, 0x57, 0xbe,
  0x6e, 0x7e, 0x0b, 0x3a, 0x6d, 0x35, 0xef, 0xbd, 0xee, 0x9d, 0x16, 0xbe,
  0x6f, 0xcc, 0xf4, 0xbe, 0x2e, 0xfb, 0x85, 0x3e, 0x89, 0x01, 0x52, 0xbe,
  0xbb, 0x39, 0x16, 0x3f, 0x5f, 0xf4, 0xdb, 0xbd, 0x9f, 0x67, 0x3f, 0x3d,
  0x77, 0xd8, 0xaf, 0x3e, 0xac, 0xfe, 0x32, 0xbd, 0x68, 0xf7, 0x8c, 0x3e,
  0x59, 0x09, 0x82, 0xbd, 0x06, 0x55, 0xa9, 0xbe, 0xf6, 0xc6, 0xd7, 0xbe,
  0x01, 0xdb, 0x1c, 0xbe, 0x0a, 0x70, 0x83, 0x3e, 0xcc, 0x07, 0x4a, 0x3e,
  0x50, 0xc9, 0x07, 0xbe, 0x49, 0x42, 0x3b, 0x3e, 0xcb, 0xda, 0x9b, 0x3d,
  0xe4, 0x91, 0x30, 0x3e, 0xe7, 0x92, 0x94, 0x3e, 0x32, 0xd6, 0x5d, 0xbe,
  0x9b, 0x13, 0x83, 0x3e, 0x37, 0xaf, 0x0d, 0x3e, 0x89, 0x2a, 0x05, 0xbe,
  0x26, 0x13, 0x99, 0xbe, 0xb4, 0xda, 0x81, 0xbe, 0xde, 0x6e, 0x59, 0xbd,
  0x1b, 0x4a, 0x5d, 0xbd, 0x3e, 0xd4, 0xa0, 0xbe, 0xa1, 0x5f, 0xb6, 0x3b,
  0x6d, 0xd5, 0xb0, 0x3e, 0xf6, 0x6d, 0xc5, 0xbe, 0x1a, 0x82, 0x7b, 0xbe,
  0x91, 0xfb, 0xbf, 0x3e, 0x99, 0x09, 0xcc, 0xbe, 0x53, 0xf8, 0x31, 0x3e,
  0x08, 0x72, 0x89, 0x3d, 0x56, 0x35, 0x40, 0x3d, 0xc5, 0xf2, 0x0f, 0x3e,
  0x51, 0xb9, 0x60, 0x3e, 0xb1, 0xa3, 0xa2, 0x3e, 0x9d, 0x1c, 0x80, 0x3e,
  0x8f, 0x53, 0xbe, 0xbe, 0x59, 0x67, 0x97, 0x3c, 0x93, 0x83, 0xdc, 0x3e,
  0x80, 0xdf, 0xcb, 0x3e, 0x99, 0x11, 0x6e, 0xbe, 0xe0, 0x0d, 0x13, 0x3e,
  0x95, 0xfe, 0xa9, 0x3d, 0x87, 0x8c, 0x96, 0xbe, 0x65, 0x61, 0x76, 0x3e,
  0x3a, 0x66, 0xec, 0x3d, 0xe7, 0x40, 0x09, 0x3e, 0x3d, 0x0d, 0xc8, 0xbe,
  0xcf, 0x35, 0x45, 0xbe, 0x89, 0xb4, 0xe3, 0xbe, 0x80, 0x08, 0x60, 0xbe,
  0xdf, 0xe5, 0x98, 0xbe, 0x74, 0x2d, 0x5a, 0x3e, 0x6d, 0xdb, 0x56, 0xbe,
  0x37, 0x3d, 0x7d, 0x3e, 0x0e, 0x06, 0xc3, 0xbe, 0x0c, 0x2a, 0x19, 0x3f,
  0x0c, 0xd7, 0x59, 0xbc, 0xa2, 0x7a, 0xc8, 0xbe, 0x2c, 0x23, 0x5b, 0xbd,
  0x77, 0x0b, 0x46, 0x3e, 0x2c, 0x92, 0xfd, 0x3b, 0xa6, 0x01, 0x2f, 0xbf,
  0x62, 0x42, 0x85, 0x3e, 0x4e, 0x32, 0x13, 0x3e, 0x00, 0x2e, 0xf5, 0xbe,
  0xf7, 0x59, 0x8d, 0x3e, 0x63, 0xcb, 0xd2, 0x3e, 0xb2, 0xf8, 0xf7, 0xbe,
  0xc9, 0xa7, 0xb2, 0xbe, 0x54, 0xba, 0x35, 0x3f, 0x23, 0xa7, 0x30, 0x3f,
  0xbb, 0xaa, 0x66, 0x3e, 0x4e, 0x63, 0x0a, 0xbf, 0xbc, 0x6c, 0xa2, 0xba,
  0x5d, 0x26, 0x8a, 0x3e, 0x03, 0x3f, 0x92, 0xbe, 0x96, 0x77, 0x8b, 0x3c,
  0xb9, 0x8f, 0x41, 0xbf, 0x6c, 0xf0, 0xda, 0xbe, 0xc0, 0x4f, 0xfe, 0xbd,
  0x68, 0xb9, 0x2d, 0xbf, 0x25, 0x49, 0xa4, 0x3e, 0xa1, 0xd5, 0x44, 0x3f,
  0x82, 0x5c, 0x2b, 0xbe, 0xfd, 0x16, 0x14, 0xbf, 0x1c, 0x89, 0x67, 0x3e,
  0x1e, 0x92, 0x05, 0x3f, 0xfc, 0x26, 0x55, 0xbe, 0xb7, 0x8a, 0x17, 0x3e,
  0x9a, 0xff, 0x62, 0x3e, 0xc0, 0xe9, 0x14, 0xbe, 0x2a, 0x03, 0x99, 0xbd,
  0x83, 0x7e, 0x50, 0x3e, 0xef, 0x12, 0x48, 0xbe, 0xce, 0xd2, 0x3d, 0xbe,
  0x65, 0x38, 0x48, 0x3e, 0xf0, 0xab, 0x12, 0x3e, 0x85, 0x2d, 0x26, 0xbe,
  0xe4, 0x53, 0xa2, 0x3e, 0xaa, 0xa6, 0x49, 0xbe, 0xc1, 0x51, 0x95, 0x3e,
  0x6a, 0x43, 0x7c, 0x3d, 0x15, 0x78, 0xc1, 0x3e, 0x03, 0x12, 0x17, 0xbb,
  0x45, 0xf0, 0xf2, 0xbd, 0x17, 0x8d, 0x69, 0xbd, 0x4c, 0xc9, 0xec, 0xbd,
  0x3f, 0x41, 0xde, 0x3e, 0xe5, 0xd6, 0x69, 0xbe, 0x18, 0x10, 0xc8, 0xbc,
  0x25, 0x58, 0x5f, 0xbe, 0xed, 0x9f, 0xed, 0xbe, 0xf9, 0x74, 0x20, 0xbe,
  0xbe, 0x3b, 0x07, 0xbf, 0xaa, 0xbe, 0xd9, 0x3d, 0xbd, 0x39, 0x30, 0x3e,
  0xd1, 0x80, 0x5b, 0x3d, 0xa4, 0x92, 0x2a, 0xbe, 0xc4, 0xec, 0x90, 0xbe,
  0x61, 0x25, 0x73, 0xbe, 0x61, 0xbc, 0x8f, 0xbe, 0x1a, 0x99, 0xdd, 0xbe,
  0x0d, 0xa1, 0xd5, 0x3e, 0x78, 0xa8, 0x8a, 0xbe, 0xf4, 0xea, 0xda, 0x3e,
  0x4b, 0x79, 0x02, 0xbf, 0xd2, 0xe6, 0x04, 0x3e, 0xd1, 0x37, 0x70, 0x3e,
  0x93, 0x3a, 0xa9, 0x3d, 0x9c, 0xde, 0x7c, 0x3e, 0x00, 0x02, 0x55, 0xbd,
  0xd1, 0x1b, 0x21, 0xbe, 0x56, 0x89, 0x9c, 0xbe, 0x58, 0xf8, 0x0e, 0x3f,
  0x2f, 0xbe, 0xb6, 0x3e, 0x2b, 0xb2, 0x13, 0x3c, 0x7f, 0x18, 0xac, 0xbe,
  0x81, 0x1f, 0x08, 0x3e, 0x31, 0x01, 0x44, 0xbe, 0x01, 0x44, 0x69, 0xbe,
  0xb4, 0x43, 0xc1, 0x3e, 0xd3, 0xed, 0x48, 0xbe, 0x76, 0xf9, 0x12, 0x3f,
  0xb1, 0x92, 0x04, 0xbd, 0xf8, 0xd4, 0x67, 0x3e, 0x18, 0x2e, 0xc0, 0x3e,
  0xa5, 0xfc, 0xcf, 0xbe, 0x57, 0x97, 0xc3, 0xbd, 0x07, 0xd7, 0x23, 0xbe,
  0x1b, 0x4a, 0xac, 0xbe, 0x0a, 0x8e, 0x0d, 0x3e, 0xa4, 0x1f, 0x71, 0xbd,
  0x9a, 0x54, 0x26, 0x3f, 0x06, 0x2d, 0x22, 0x3e, 0x80, 0x0b, 0x04, 0x3e,
  0x4a, 0x2e, 0xe4, 0xbe, 0x9c, 0x04, 0x0e, 0x3f, 0x90, 0x91, 0x20, 0xbd,
  0x62, 0x6b, 0xae, 0x3e, 0xd5, 0x71, 0xa5, 0x3e, 0x77, 0x05, 0x1d, 0xbd,
  0x73, 0x86, 0xb6, 0x3e, 0x3c, 0x95, 0xb4, 0x3e, 0x0c, 0x89, 0xcb, 0x3d,
  0x49, 0xad, 0xfe, 0x3e, 0x33, 0x51, 0x24, 0x3e, 0xce, 0x2b, 0x60, 0x3e,
  0x5f, 0x4e, 0x52, 0xbe, 0x31, 0xe1, 0x23, 0xbe, 0x00, 0x00, 0x1c, 0xba,
  0x5e, 0xdb, 0xa9, 0xbe, 0x0f, 0xa5, 0xc0, 0x3e, 0xf7, 0x16, 0xfd, 0xbc,
  0x75, 0xab, 0xfe, 0xbd, 0xc4, 0x19, 0xa1, 0xbb, 0xad, 0x9c, 0x01, 0xbf,
  0xb3, 0x72, 0x82, 0x3d, 0xaa, 0x3b, 0xf6, 0xbe, 0xe3, 0x4f, 0x13, 0xbd,
  0x81, 0x06, 0x72, 0x3e, 0xf4, 0x44, 0x3c, 0x3c, 0x8e, 0xd3, 0x48, 0x3e,
  0x46, 0x2b, 0x42, 0xbe, 0x1b, 0x2d, 0xac, 0x3e, 0xaa, 0x1c, 0x49, 0x3e,
  0x69, 0xf8, 0x23, 0x3e, 0x65, 0x47, 0xf5, 0xbe, 0x74, 0xb0, 0x2d, 0x3e,
  0xcd, 0x18, 0xa7, 0xbe, 0xc6, 0x44, 0x2d, 0xbe, 0x69, 0x1f, 0x80, 0xbe,
  0x9b, 0x47, 0x18, 0xbc, 0xe1, 0x1b, 0x9a, 0xbe, 0xe7, 0x43, 0x8c, 0x3b,
  0xde, 0x64, 0xae, 0xbe, 0xd2, 0xbe, 0xac, 0x3d, 0xef, 0xed, 0x02, 0xbe,
  0xe4, 0x49, 0x98, 0x3e, 0x6c, 0xe9, 0xaa, 0xbe, 0x63, 0x17, 0x98, 0x3d,
  0x66, 0x93, 0xb6, 0xbe, 0x2a, 0xca, 0xc4, 0x3e, 0xcc, 0x4b, 0xc9, 0xbe,
  0x28, 0x41, 0x8a, 0x3e, 0xaa, 0x34, 0x12, 0xbe, 0x27, 0x76, 0x8b, 0xbe,
  0x08, 0x24, 0x81, 0xbe, 0xec, 0x99, 0xd1, 0xbe, 0x47, 0x50, 0x8a, 0xbd,
  0x78, 0x1e, 0xd5, 0xbd, 0xe4, 0xbd, 0x54, 0x3e, 0x28, 0x41, 0x39, 0xbe,
  0x33, 0xa0, 0xc7, 0xbe, 0x3f, 0x4d, 0xd5, 0x3c, 0x76, 0x7a, 0x70, 0x3c,
  0xc4, 0xb8, 0xa7, 0xbd, 0x29, 0x79, 0x87, 0xbe, 0xa1, 0x12, 0x0a, 0xbe,
  0x25, 0xe7, 0x87, 0x3d, 0x78, 0x29, 0x60, 0x3e, 0xad, 0x1f, 0xdf, 0x3e,
  0x58, 0x7c, 0x04, 0xbf, 0x99, 0x41, 0x5b, 0xbe, 0x31, 0x9d, 0xf7, 0x3c,
  0xd9, 0x58, 0xf5, 0xbe, 0x9c, 0xf1, 0x2f, 0xbe, 0xd4, 0x4f, 0x2a, 0x3e,
  0x14, 0x86, 0xac, 0xbe, 0x2d, 0xc6, 0xb6, 0xbe, 0x24, 0xce, 0x2c, 0x3f,
  0xed, 0x19, 0x16, 0x3f, 0x80, 0x87, 0xac, 0xbe, 0xfc, 0x46, 0x44, 0x3f,
  0x0a, 0x92, 0xdf, 0x3b, 0xea, 0x54, 0x53, 0x3d, 0x11, 0xac, 0xb7, 0xbe,
  0x1b, 0x8e, 0xb1, 0xbe, 0xdf, 0xf0, 0x36, 0x3f, 0x5d, 0x2c, 0xc9, 0x3e,
  0xc7, 0xaf, 0xf8, 0xbd, 0x33, 0x96, 0xb9, 0x3e, 0xd6, 0xe4, 0x21, 0x3e,
  0xff, 0xf8, 0x63, 0xbf, 0xde, 0xdc, 0xad, 0x3e, 0xfd, 0x5e, 0x44, 0x3f,
  0x58, 0x3e, 0x84, 0xbf, 0x0d, 0xf9, 0x25, 0xbf, 0x2b, 0xe7, 0x30, 0x3e,
  0xc4, 0xee, 0x80, 0xbd, 0x8a, 0x0f, 0xdb, 0xbd, 0xcb, 0xc9, 0x82, 0xbd,
  0x1a, 0x02, 0xd7, 0xbe, 0x66, 0x00, 0xb1, 0x3e, 0x97, 0x91, 0x45, 0x3d,
  0x85, 0x81, 0x03, 0xbe, 0xcc, 0x29, 0x13, 0x3e, 0xba, 0xb2, 0x69, 0x3e,
  0xc1, 0x2c, 0xca, 0x3e, 0x82, 0x0a, 0x3a, 0x3d, 0x18, 0x4b, 0xea, 0xbe,
  0xb1, 0x64, 0x13, 0xbe, 0x06, 0xd0, 0xea, 0x3d, 0x31, 0x61, 0x05, 0xbe,
  0x1f, 0xd3, 0x16, 0x3f, 0x54, 0xf3, 0x90, 0xbe, 0x69, 0x99, 0x82, 0xbe,
  0x6d, 0x4a, 0xc2, 0x3c, 0x08, 0xe5, 0x95, 0x3d, 0x74, 0x46, 0xf5, 0x3d,
  0xe2, 0x86, 0x4b, 0xbf, 0x9f, 0x84, 0xc2, 0xbe, 0x3e, 0x55, 0x0c, 0x3e,
  0xfb, 0xa2, 0xc9, 0xbe, 0x19, 0xa5, 0x42, 0x3d, 0x15, 0xec, 0xea, 0x3e,
  0x5e, 0x32, 0x06, 0xbf, 0x4b, 0x9b, 0x27, 0xbf, 0x50, 0x20, 0x1c, 0x3f,
  0x1a, 0xc6, 0x17, 0x3f, 0x6e, 0xd9, 0xc2, 0xbd, 0x35, 0x5a, 0x1a, 0x3e,
  0x6b, 0xb1, 0x14, 0xbf, 0x4b, 0x7b, 0xa2, 0x3d, 0x40, 0x8c, 0x5e, 0xbe,
  0x8a, 0x4e, 0x18, 0x3f, 0x61, 0x3f, 0x58, 0xbe, 0x59, 0x6f, 0x33, 0xbe,
  0x11, 0x6e, 0xcf, 0x3d, 0x93, 0xea, 0x98, 0xbe, 0x6e, 0x7b, 0xc4, 0x3e,
  0x86, 0x06, 0x9e, 0x3d, 0x58, 0x45, 0x6d, 0xbe, 0x13, 0x1d, 0x0e, 0xbf,
  0x17, 0x89, 0x0d, 0xbd, 0x66, 0xeb, 0x3f, 0x3e, 0x00, 0x00, 0x00, 0x00,
  0xe6, 0xff, 0xff, 0xff, 0x04, 0x00, 0x00, 0x00, 0x04, 0x00, 0x00, 0x00,
  0xc4, 0x99, 0xe1, 0x3d, 0x00, 0x00, 0x00, 0x00, 0x00, 0x00, 0x00, 0x00,
  0x00, 0x00, 0x06, 0x00, 0x08, 0x00, 0x04, 0x00, 0x06, 0x00, 0x00, 0x00,
  0x04, 0x00, 0x00, 0x00, 0x78, 0x00, 0x00, 0x00, 0x00, 0x00, 0x00, 0x00,
  0x06, 0xce, 0xe2, 0x3d, 0x11, 0x98, 0xae, 0x3d, 0x3f, 0x60, 0x2d, 0x3e,
  0xb1, 0xf4, 0x04, 0x3e, 0x01, 0x3f, 0x3d, 0xbd, 0x00, 0x00, 0x00, 0x00,
  0x1d, 0x70, 0x18, 0xbc, 0x0c, 0x08, 0x3f, 0x3e, 0xc2, 0x04, 0xec, 0x3b,
  0x0b, 0xd0, 0xe5, 0xbd, 0x07, 0xb7, 0x03, 0x3e, 0x76, 0x11, 0x24, 0xbc,
  0x98, 0xce, 0x02, 0x3e, 0xdf, 0x40, 0x83, 0xbd, 0x25, 0x70, 0x2f, 0x3e,
  0xe5, 0xfc, 0x94, 0x3e, 0x34, 0x0e, 0xd9, 0x3d, 0xac, 0x3d, 0x9b, 0xbd,
  0xcb, 0xca, 0x61, 0x3e, 0x23, 0xbc, 0xe3, 0x3b, 0x6e, 0xa1, 0x96, 0x3d,
  0x29, 0x29, 0x22, 0xbd, 0x0f, 0x55, 0xd9, 0xbd, 0xe7, 0xb5, 0x84, 0xbd,
  0xff, 0xd3, 0x4f, 0x3e, 0xcb, 0xce, 0xed, 0xbd, 0x58, 0xef, 0xde, 0x3d,
  0xea, 0x37, 0x3b, 0x3e, 0x7e, 0x12, 0x16, 0x3e, 0x00, 0x00, 0x00, 0x00,
  0x84, 0xfc, 0xff, 0xff, 0x00, 0x00, 0x00, 0x00, 0x00, 0x00, 0x00, 0x00,
  0x00, 0x00, 0x00, 0x00, 0x94, 0xfc, 0xff, 0xff, 0x00, 0x00, 0x00, 0x00,
  0x00, 0x00, 0x00, 0x00, 0x0f, 0x00, 0x00, 0x00, 0x4d, 0x4c, 0x49, 0x52,
  0x20, 0x43, 0x6f, 0x6e, 0x76, 0x65, 0x72, 0x74, 0x65, 0x64, 0x2e, 0x00,
  0x01, 0x00, 0x00, 0x00, 0x14, 0x00, 0x00, 0x00, 0x00, 0x00, 0x0e, 0x00,
  0x18, 0x00, 0x04, 0x00, 0x08, 0x00, 0x0c, 0x00, 0x10, 0x00, 0x14, 0x00,
  0x0e, 0x00, 0x00, 0x00, 0xc8, 0x00, 0x00, 0x00, 0xbc, 0x00, 0x00, 0x00,
  0xb0, 0x00, 0x00, 0x00, 0x14, 0x00, 0x00, 0x00, 0x04, 0x00, 0x00, 0x00,
  0x04, 0x00, 0x00, 0x00, 0x6d, 0x61, 0x69, 0x6e, 0x00, 0x00, 0x00, 0x00,
  0x02, 0x00, 0x00, 0x00, 0x58, 0x00, 0x00, 0x00, 0x14, 0x00, 0x00, 0x00,
  0x00, 0x00, 0x0e, 0x00, 0x14, 0x00, 0x00, 0x00, 0x08, 0x00, 0x0c, 0x00,
  0x07, 0x00, 0x10, 0x00, 0x0e, 0x00, 0x00, 0x00, 0x00, 0x00, 0x00, 0x08,
  0x18, 0x00, 0x00, 0x00, 0x0c, 0x00, 0x00, 0x00, 0x04, 0x00, 0x00, 0x00,
  0x20, 0xfd, 0xff, 0xff, 0x01, 0x00, 0x00, 0x00, 0x06, 0x00, 0x00, 0x00,
  0x03, 0x00, 0x00, 0x00, 0x05, 0x00, 0x00, 0x00, 0x04, 0x00, 0x00, 0x00,
  0x02, 0x00, 0x00, 0x00, 0x00, 0x00, 0x0e, 0x00, 0x16, 0x00, 0x00, 0x00,
  0x08, 0x00, 0x0c, 0x00, 0x07, 0x00, 0x10, 0x00, 0x0e, 0x00, 0x00, 0x00,
  0x00, 0x00, 0x00, 0x08, 0x24, 0x00, 0x00, 0x00, 0x18, 0x00, 0x00, 0x00,
  0x0c, 0x00, 0x00, 0x00, 0x00, 0x00, 0x06, 0x00, 0x08, 0x00, 0x07, 0x00,
  0x06, 0x00, 0x00, 0x00, 0x00, 0x00, 0x00, 0x01, 0x01, 0x00, 0x00, 0x00,
  0x05, 0x00, 0x00, 0x00, 0x03, 0x00, 0x00, 0x00, 0x00, 0x00, 0x00, 0x00,
  0x03, 0x00, 0x00, 0x00, 0x01, 0x00, 0x00, 0x00, 0x01, 0x00, 0x00, 0x00,
  0x06, 0x00, 0x00, 0x00, 0x01, 0x00, 0x00, 0x00, 0x00, 0x00, 0x00, 0x00,
  0x07, 0x00, 0x00, 0x00, 0x40, 0x02, 0x00, 0x00, 0xd0, 0x01, 0x00, 0x00,
  0x64, 0x01, 0x00, 0x00, 0x1c, 0x01, 0x00, 0x00, 0xd4, 0x00, 0x00, 0x00,
  0x4c, 0x00, 0x00, 0x00, 0x04, 0x00, 0x00, 0x00, 0xf0, 0xfd, 0xff, 0xff,
  0x34, 0x00, 0x00, 0x00, 0x07, 0x00, 0x00, 0x00, 0x1c, 0x00, 0x00, 0x00,
  0x14, 0x00, 0x00, 0x00, 0x04, 0x00, 0x00, 0x00, 0x02, 0x00, 0x00, 0x00,
  0xff, 0xff, 0xff, 0xff, 0x01, 0x00, 0x00, 0x00, 0xdc, 0xfd, 0xff, 0xff,
  0x08, 0x00, 0x00, 0x00, 0x49, 0x64, 0x65, 0x6e, 0x74, 0x69, 0x74, 0x79,
  0x00, 0x00, 0x00, 0x00, 0x02, 0x00, 0x00, 0x00, 0x01, 0x00, 0x00, 0x00,
  0x01, 0x00, 0x00, 0x00, 0x34, 0xfe, 0xff, 0xff, 0x74, 0x00, 0x00, 0x00,
  0x06, 0x00, 0x00, 0x00, 0x1c, 0x00, 0x00, 0x00, 0x14, 0x00, 0x00, 0x00,
  0x04, 0x00, 0x00, 0x00, 0x02, 0x00, 0x00, 0x00, 0xff, 0xff, 0xff, 0xff,
  0x1e, 0x00, 0x00, 0x00, 0x20, 0xfe, 0xff, 0xff, 0x49, 0x00, 0x00, 0x00,
  0x6d, 0x6f, 0x64, 0x65, 0x6c, 0x5f, 0x34, 0x37, 0x2f, 0x64, 0x65, 0x6e,
  0x73, 0x65, 0x5f, 0x31, 0x36, 0x2f, 0x4d, 0x61, 0x74, 0x4d, 0x75, 0x6c,
  0x3b, 0x6d, 0x6f, 0x64, 0x65, 0x6c, 0x5f, 0x34, 0x37, 0x2f, 0x64, 0x65,
  0x6e, 0x73, 0x65, 0x5f, 0x31, 0x36, 0x2f, 0x52, 0x65, 0x6c, 0x75, 0x3b,
  0x6d, 0x6f, 0x64, 0x65, 0x6c, 0x5f, 0x34, 0x37, 0x2f, 0x64, 0x65, 0x6e,
  0x73, 0x65, 0x5f, 0x31, 0x36, 0x2f, 0x42, 0x69, 0x61, 0x73, 0x41, 0x64,
  0x64, 0x00, 0x00, 0x00, 0x02, 0x00, 0x00, 0x00, 0x01, 0x00, 0x00, 0x00,
  0x1e, 0x00, 0x00, 0x00, 0x1e, 0xff, 0xff, 0xff, 0x34, 0x00, 0x00, 0x00,
  0x05, 0x00, 0x00, 0x00, 0x0c, 0x00, 0x00, 0x00, 0x04, 0x00, 0x00, 0x00,
  0x94, 0xfe, 0xff, 0xff, 0x18, 0x00, 0x00, 0x00, 0x6d, 0x6f, 0x64, 0x65,
  0x6c, 0x5f, 0x34, 0x37, 0x2f, 0x64, 0x65, 0x6e, 0x73, 0x65, 0x5f, 0x31,
  0x37, 0x2f, 0x4d, 0x61, 0x74, 0x4d, 0x75, 0x6c, 0x00, 0x00, 0x00, 0x00,
  0x02, 0x00, 0x00, 0x00, 0x01, 0x00, 0x00, 0x00, 0x1e, 0x00, 0x00, 0x00,
  0x62, 0xff, 0xff, 0xff, 0x34, 0x00, 0x00, 0x00, 0x04, 0x00, 0x00, 0x00,
  0x0c, 0x00, 0x00, 0x00, 0x04, 0x00, 0x00, 0x00, 0xd8, 0xfe, 0xff, 0xff,
  0x18, 0x00, 0x00, 0x00, 0x6d, 0x6f, 0x64, 0x65, 0x6c, 0x5f, 0x34, 0x37,
  0x2f, 0x64, 0x65, 0x6e, 0x73, 0x65, 0x5f, 0x31, 0x36, 0x2f, 0x4d, 0x61,
  0x74, 0x4d, 0x75, 0x6c, 0x00, 0x00, 0x00, 0x00, 0x02, 0x00, 0x00, 0x00,
  0x1e, 0x00, 0x00, 0x00, 0x10, 0x00, 0x00, 0x00, 0xa6, 0xff, 0xff, 0xff,
  0x4c, 0x00, 0x00, 0x00, 0x03, 0x00, 0x00, 0x00, 0x0c, 0x00, 0x00, 0x00,
  0x04, 0x00, 0x00, 0x00, 0x1c, 0xff, 0xff, 0xff, 0x31, 0x00, 0x00, 0x00,
  0x6d, 0x6f, 0x64, 0x65, 0x6c, 0x5f, 0x34, 0x37, 0x2f, 0x64, 0x65, 0x6e,
  0x73, 0x65, 0x5f, 0x31, 0x37, 0x2f, 0x42, 0x69, 0x61, 0x73, 0x41, 0x64,
  0x64, 0x2f, 0x52, 0x65, 0x61, 0x64, 0x56, 0x61, 0x72, 0x69, 0x61, 0x62,
  0x6c, 0x65, 0x4f, 0x70, 0x2f, 0x72, 0x65, 0x73, 0x6f, 0x75, 0x72, 0x63,
  0x65, 0x00, 0x00, 0x00, 0x01, 0x00, 0x00, 0x00, 0x01, 0x00, 0x00, 0x00,
  0x00, 0x00, 0x0e, 0x00, 0x14, 0x00, 0x04, 0x00, 0x00, 0x00, 0x08, 0x00,
  0x0c, 0x00, 0x10, 0x00, 0x0e, 0x00, 0x00, 0x00, 0x4c, 0x00, 0x00, 0x00,
  0x02, 0x00, 0x00, 0x00, 0x0c, 0x00, 0x00, 0x00, 0x04, 0x00, 0x00, 0x00,
  0x84, 0xff, 0xff, 0xff, 0x31, 0x00, 0x00, 0x00, 0x6d, 0x6f, 0x64, 0x65,
  0x6c, 0x5f, 0x34, 0x37, 0x2f, 0x64, 0x65, 0x6e, 0x73, 0x65, 0x5f, 0x31,
  0x36, 0x2f, 0x42, 0x69, 0x61, 0x73, 0x41, 0x64, 0x64, 0x2f, 0x52, 0x65,
  0x61, 0x64, 0x56, 0x61, 0x72, 0x69, 0x61, 0x62, 0x6c, 0x65, 0x4f, 0x70,
  0x2f, 0x72, 0x65, 0x73, 0x6f, 0x75, 0x72, 0x63, 0x65, 0x00, 0x00, 0x00,
  0x01, 0x00, 0x00, 0x00, 0x1e, 0x00, 0x00, 0x00, 0x14, 0x00, 0x18, 0x00,
  0x04, 0x00, 0x00, 0x00, 0x08, 0x00, 0x0c, 0x00, 0x10, 0x00, 0x00, 0x00,
  0x00, 0x00, 0x14, 0x00, 0x14, 0x00, 0x00, 0x00, 0x38, 0x00, 0x00, 0x00,
  0x01, 0x00, 0x00, 0x00, 0x20, 0x00, 0x00, 0x00, 0x18, 0x00, 0x00, 0x00,
  0x04, 0x00, 0x00, 0x00, 0x02, 0x00, 0x00, 0x00, 0xff, 0xff, 0xff, 0xff,
  0x10, 0x00, 0x00, 0x00, 0x04, 0x00, 0x04, 0x00, 0x04, 0x00, 0x00, 0x00,
  0x08, 0x00, 0x00, 0x00, 0x69, 0x6e, 0x70, 0x75, 0x74, 0x5f, 0x39, 0x32,
  0x00, 0x00, 0x00, 0x00, 0x02, 0x00, 0x00, 0x00, 0x01, 0x00, 0x00, 0x00,
  0x10, 0x00, 0x00, 0x00, 0x01, 0x00, 0x00, 0x00, 0x10, 0x00, 0x00, 0x00,
  0x0c, 0x00, 0x10, 0x00, 0x07, 0x00, 0x00, 0x00, 0x08, 0x00, 0x0c, 0x00,
  0x0c, 0x00, 0x00, 0x00, 0x00, 0x00, 0x00, 0x09, 0x09, 0x00, 0x00, 0x00,
  0x09, 0x00, 0x00, 0x00
};
unsigned int _content_dense_model_tflite_len = 3424;


unsigned char _content_lstm_model_fw_tflite[] = {
  0x1c, 0x00, 0x00, 0x00, 0x54, 0x46, 0x4c, 0x33, 0x14, 0x00, 0x20, 0x00,
  0x04, 0x00, 0x08, 0x00, 0x0c, 0x00, 0x10, 0x00, 0x14, 0x00, 0x00, 0x00,
  0x18, 0x00, 0x1c, 0x00, 0x14, 0x00, 0x00, 0x00, 0x03, 0x00, 0x00, 0x00,
  0x18, 0x00, 0x00, 0x00, 0x30, 0x00, 0x00, 0x00, 0xf4, 0x00, 0x00, 0x00,
  0x30, 0x00, 0x00, 0x00, 0x9c, 0x00, 0x00, 0x00, 0x94, 0x00, 0x00, 0x00,
  0x06, 0x00, 0x00, 0x00, 0x08, 0x0a, 0x00, 0x00, 0xd4, 0x08, 0x00, 0x00,
  0x9c, 0x06, 0x00, 0x00, 0xf0, 0x05, 0x00, 0x00, 0xe4, 0x04, 0x00, 0x00,
  0xd4, 0x03, 0x00, 0x00, 0x01, 0x00, 0x00, 0x00, 0xe8, 0x00, 0x00, 0x00,
  0x1a, 0x00, 0x00, 0x00, 0xc4, 0x1e, 0x00, 0x00, 0xc0, 0x1e, 0x00, 0x00,
  0xbc, 0x1e, 0x00, 0x00, 0xb8, 0x1e, 0x00, 0x00, 0x58, 0x1c, 0x00, 0x00,
  0xdc, 0x1b, 0x00, 0x00, 0x88, 0x1a, 0x00, 0x00, 0x30, 0x0a, 0x00, 0x00,
  0xa4, 0x1e, 0x00, 0x00, 0xa0, 0x1e, 0x00, 0x00, 0x9c, 0x1e, 0x00, 0x00,
  0x98, 0x1e, 0x00, 0x00, 0x94, 0x1e, 0x00, 0x00, 0x90, 0x1e, 0x00, 0x00,
  0x8c, 0x1e, 0x00, 0x00, 0x88, 0x1e, 0x00, 0x00, 0x84, 0x1e, 0x00, 0x00,
  0x80, 0x1e, 0x00, 0x00, 0x7c, 0x1e, 0x00, 0x00, 0x78, 0x1e, 0x00, 0x00,
  0x74, 0x1e, 0x00, 0x00, 0x70, 0x1e, 0x00, 0x00, 0x6c, 0x1e, 0x00, 0x00,
  0x68, 0x1e, 0x00, 0x00, 0x64, 0x1e, 0x00, 0x00, 0x3c, 0x00, 0x00, 0x00,
  0x00, 0x00, 0x00, 0x00, 0x01, 0x00, 0x00, 0x00, 0x0c, 0x00, 0x00, 0x00,
  0x08, 0x00, 0x0c, 0x00, 0x04, 0x00, 0x08, 0x00, 0x08, 0x00, 0x00, 0x00,
  0x08, 0x00, 0x00, 0x00, 0x19, 0x00, 0x00, 0x00, 0x13, 0x00, 0x00, 0x00,
  0x6d, 0x69, 0x6e, 0x5f, 0x72, 0x75, 0x6e, 0x74, 0x69, 0x6d, 0x65, 0x5f,
  0x76, 0x65, 0x72, 0x73, 0x69, 0x6f, 0x6e, 0x00, 0x3e, 0xe4, 0xff, 0xff,
  0x04, 0x00, 0x00, 0x00, 0x10, 0x00, 0x00, 0x00, 0x31, 0x2e, 0x31, 0x34,
  0x2e, 0x30, 0x00, 0x00, 0x00, 0x00, 0x00, 0x00, 0x00, 0x00, 0x00, 0x00,
  0x0f, 0x00, 0x00, 0x00, 0x4d, 0x4c, 0x49, 0x52, 0x20, 0x43, 0x6f, 0x6e,
  0x76, 0x65, 0x72, 0x74, 0x65, 0x64, 0x2e, 0x00, 0x00, 0x00, 0x0e, 0x00,
  0x18, 0x00, 0x04, 0x00, 0x08, 0x00, 0x0c, 0x00, 0x10, 0x00, 0x14, 0x00,
  0x0e, 0x00, 0x00, 0x00, 0x14, 0x00, 0x00, 0x00, 0x74, 0x00, 0x00, 0x00,
  0x80, 0x00, 0x00, 0x00, 0x8c, 0x00, 0x00, 0x00, 0xc4, 0x00, 0x00, 0x00,
  0x18, 0x00, 0x00, 0x00, 0x80, 0x1d, 0x00, 0x00, 0x24, 0x1d, 0x00, 0x00,
  0xdc, 0x1c, 0x00, 0x00, 0x7c, 0x1c, 0x00, 0x00, 0x04, 0x1b, 0x00, 0x00,
  0x9c, 0x1a, 0x00, 0x00, 0x44, 0x19, 0x00, 0x00, 0xdc, 0x08, 0x00, 0x00,
  0x24, 0x08, 0x00, 0x00, 0x9c, 0x07, 0x00, 0x00, 0xec, 0x06, 0x00, 0x00,
  0x64, 0x06, 0x00, 0x00, 0x0c, 0x06, 0x00, 0x00, 0xb4, 0x05, 0x00, 0x00,
  0x5c, 0x05, 0x00, 0x00, 0xb0, 0x04, 0x00, 0x00, 0x18, 0x04, 0x00, 0x00,
  0xa0, 0x03, 0x00, 0x00, 0x04, 0x03, 0x00, 0x00, 0x8c, 0x02, 0x00, 0x00,
  0x04, 0x02, 0x00, 0x00, 0x8c, 0x01, 0x00, 0x00, 0x04, 0x01, 0x00, 0x00,
  0x9c, 0x00, 0x00, 0x00, 0x03, 0x00, 0x00, 0x00, 0x00, 0x00, 0x00, 0x00,
  0x01, 0x00, 0x00, 0x00, 0x02, 0x00, 0x00, 0x00, 0x03, 0x00, 0x00, 0x00,
  0x17, 0x00, 0x00, 0x00, 0x17, 0x00, 0x00, 0x00, 0x15, 0x00, 0x00, 0x00,
  0x0e, 0x00, 0x00, 0x00, 0x28, 0x08, 0x00, 0x00, 0x8c, 0x07, 0x00, 0x00,
  0xf0, 0x06, 0x00, 0x00, 0x54, 0x06, 0x00, 0x00, 0xb0, 0x04, 0x00, 0x00,
  0x24, 0x04, 0x00, 0x00, 0x9c, 0x03, 0x00, 0x00, 0x04, 0x03, 0x00, 0x00,
  0x88, 0x02, 0x00, 0x00, 0x00, 0x02, 0x00, 0x00, 0x78, 0x01, 0x00, 0x00,
  0x00, 0x01, 0x00, 0x00, 0x88, 0x00, 0x00, 0x00, 0x10, 0x00, 0x00, 0x00,
  0x04, 0x00, 0x00, 0x00, 0x6d, 0x61, 0x69, 0x6e, 0x00, 0x00, 0x00, 0x00,
  0x5a, 0xf9, 0xff, 0xff, 0x00, 0x00, 0x00, 0x15, 0x04, 0x00, 0x00, 0x00,
  0x18, 0x00, 0x00, 0x00, 0x0c, 0x00, 0x00, 0x00, 0x04, 0x00, 0x00, 0x00,
  0x1c, 0xe3, 0xff, 0xff, 0x01, 0x00, 0x00, 0x00, 0x17, 0x00, 0x00, 0x00,
  0x02, 0x00, 0x00, 0x00, 0x12, 0x00, 0x00, 0x00, 0x16, 0x00, 0x00, 0x00,
  0x8c, 0xe3, 0xff, 0xff, 0x14, 0x00, 0x00, 0x00, 0x18, 0x00, 0x00, 0x00,
  0x18, 0x00, 0x00, 0x00, 0x30, 0x00, 0x00, 0x00, 0x20, 0x00, 0x00, 0x00,
  0x02, 0x00, 0x00, 0x00, 0x01, 0x00, 0x00, 0x00, 0x10, 0x00, 0x00, 0x00,
  0x08, 0x00, 0x00, 0x00, 0x49, 0x64, 0x65, 0x6e, 0x74, 0x69, 0x74, 0x79,
  0x00, 0x00, 0x00, 0x00, 0x02, 0x00, 0x00, 0x00, 0xff, 0xff, 0xff, 0xff,
  0x10, 0x00, 0x00, 0x00, 0x74, 0xe3, 0xff, 0xff, 0x8a, 0xfc, 0xff, 0xff,
  0x05, 0x00, 0x00, 0x00, 0x10, 0x00, 0x00, 0x00, 0x04, 0x00, 0x00, 0x00,
  0x01, 0x00, 0x00, 0x00, 0x16, 0x00, 0x00, 0x00, 0x01, 0x00, 0x00, 0x00,
  0x15, 0x00, 0x00, 0x00, 0xf0, 0xe3, 0xff, 0xff, 0x14, 0x00, 0x00, 0x00,
  0x17, 0x00, 0x00, 0x00, 0x18, 0x00, 0x00, 0x00, 0x40, 0x00, 0x00, 0x00,
  0x30, 0x00, 0x00, 0x00, 0x02, 0x00, 0x00, 0x00, 0x01, 0x00, 0x00, 0x00,
  0x10, 0x00, 0x00, 0x00, 0x1b, 0x00, 0x00, 0x00, 0x6d, 0x6f, 0x64, 0x65,
  0x6c, 0x5f, 0x34, 0x36, 0x2f, 0x6c, 0x73, 0x74, 0x6d, 0x5f, 0x63, 0x65,
  0x6c, 0x6c, 0x5f, 0x38, 0x2f, 0x54, 0x61, 0x6e, 0x68, 0x5f, 0x31, 0x00,
  0x02, 0x00, 0x00, 0x00, 0xff, 0xff, 0xff, 0xff, 0x10, 0x00, 0x00, 0x00,
  0xe8, 0xe3, 0xff, 0xff, 0x42, 0xfa, 0xff, 0xff, 0x00, 0x00, 0x00, 0x0b,
  0x01, 0x00, 0x00, 0x00, 0x18, 0x00, 0x00, 0x00, 0x0c, 0x00, 0x00, 0x00,
  0x04, 0x00, 0x00, 0x00, 0x04, 0xe4, 0xff, 0xff, 0x01, 0x00, 0x00, 0x00,
  0x15, 0x00, 0x00, 0x00, 0x02, 0x00, 0x00, 0x00, 0x11, 0x00, 0x00, 0x00,
  0x14, 0x00, 0x00, 0x00, 0x74, 0xe4, 0xff, 0xff, 0x14, 0x00, 0x00, 0x00,
  0x16, 0x00, 0x00, 0x00, 0x18, 0x00, 0x00, 0x00, 0x30, 0x00, 0x00, 0x00,
  0x20, 0x00, 0x00, 0x00, 0x02, 0x00, 0x00, 0x00, 0x01, 0x00, 0x00, 0x00,
  0x10, 0x00, 0x00, 0x00, 0x0a, 0x00, 0x00, 0x00, 0x49, 0x64, 0x65, 0x6e,
  0x74, 0x69, 0x74, 0x79, 0x5f, 0x32, 0x00, 0x00, 0x02, 0x00, 0x00, 0x00,
  0xff, 0xff, 0xff, 0xff, 0x10, 0x00, 0x00, 0x00, 0x5c, 0xe4, 0xff, 0xff,
  0xb6, 0xfa, 0xff, 0xff, 0x00, 0x00, 0x00, 0x15, 0x04, 0x00, 0x00, 0x00,
  0x18, 0x00, 0x00, 0x00, 0x0c, 0x00, 0x00, 0x00, 0x04, 0x00, 0x00, 0x00,
  0x78, 0xe4, 0xff, 0xff, 0x01, 0x00, 0x00, 0x00, 0x14, 0x00, 0x00, 0x00,
  0x02, 0x00, 0x00, 0x00, 0x0f, 0x00, 0x00, 0x00, 0x13, 0x00, 0x00, 0x00,
  0xe8, 0xe4, 0xff, 0xff, 0x14, 0x00, 0x00, 0x00, 0x15, 0x00, 0x00, 0x00,
  0x18, 0x00, 0x00, 0x00, 0x40, 0x00, 0x00, 0x00, 0x30, 0x00, 0x00, 0x00,
  0x02, 0x00, 0x00, 0x00, 0x01, 0x00, 0x00, 0x00, 0x10, 0x00, 0x00, 0x00,
  0x1a, 0x00, 0x00, 0x00, 0x6d, 0x6f, 0x64, 0x65, 0x6c, 0x5f, 0x34, 0x36,
  0x2f, 0x6c, 0x73, 0x74, 0x6d, 0x5f, 0x63, 0x65, 0x6c, 0x6c, 0x5f, 0x38,
  0x2f, 0x6d, 0x75, 0x6c, 0x5f, 0x31, 0x00, 0x00, 0x02, 0x00, 0x00, 0x00,
  0xff, 0xff, 0xff, 0xff, 0x10, 0x00, 0x00, 0x00, 0xe0, 0xe4, 0xff, 0xff,
  0xf6, 0xfd, 0xff, 0xff, 0x05, 0x00, 0x00, 0x00, 0x10, 0x00, 0x00, 0x00,
  0x04, 0x00, 0x00, 0x00, 0x01, 0x00, 0x00, 0x00, 0x13, 0x00, 0x00, 0x00,
  0x01, 0x00, 0x00, 0x00, 0x0d, 0x00, 0x00, 0x00, 0xec, 0xf9, 0xff, 0xff,
  0x1c, 0x00, 0x00, 0x00, 0x00, 0x00, 0x00, 0x1c, 0x01, 0x00, 0x00, 0x00,
  0x6c, 0xe5, 0xff, 0xff, 0x14, 0x00, 0x00, 0x00, 0x14, 0x00, 0x00, 0x00,
  0x18, 0x00, 0x00, 0x00, 0x40, 0x00, 0x00, 0x00, 0x30, 0x00, 0x00, 0x00,
  0x02, 0x00, 0x00, 0x00, 0x01, 0x00, 0x00, 0x00, 0x10, 0x00, 0x00, 0x00,
  0x19, 0x00, 0x00, 0x00, 0x6d, 0x6f, 0x64, 0x65, 0x6c, 0x5f, 0x34, 0x36,
  0x2f, 0x6c, 0x73, 0x74, 0x6d, 0x5f, 0x63, 0x65, 0x6c, 0x6c, 0x5f, 0x38,
  0x2f, 0x54, 0x61, 0x6e, 0x68, 0x00, 0x00, 0x00, 0x02, 0x00, 0x00, 0x00,
  0xff, 0xff, 0xff, 0xff, 0x10, 0x00, 0x00, 0x00, 0x64, 0xe5, 0xff, 0xff,
  0x7a, 0xfe, 0xff, 0xff, 0x03, 0x00, 0x00, 0x00, 0x10, 0x00, 0x00, 0x00,
  0x04, 0x00, 0x00, 0x00, 0x01, 0x00, 0x00, 0x00, 0x12, 0x00, 0x00, 0x00,
  0x01, 0x00, 0x00, 0x00, 0x0e, 0x00, 0x00, 0x00, 0xe0, 0xe5, 0xff, 0xff,
  0x14, 0x00, 0x00, 0x00, 0x13, 0x00, 0x00, 0x00, 0x18, 0x00, 0x00, 0x00,
  0x44, 0x00, 0x00, 0x00, 0x34, 0x00, 0x00, 0x00, 0x02, 0x00, 0x00, 0x00,
  0x01, 0x00, 0x00, 0x00, 0x10, 0x00, 0x00, 0x00, 0x1e, 0x00, 0x00, 0x00,
  0x6d, 0x6f, 0x64, 0x65, 0x6c, 0x5f, 0x34, 0x36, 0x2f, 0x6c, 0x73, 0x74,
  0x6d, 0x5f, 0x63, 0x65, 0x6c, 0x6c, 0x5f, 0x38, 0x2f, 0x53, 0x69, 0x67,
  0x6d, 0x6f, 0x69, 0x64, 0x5f, 0x32, 0x00, 0x00, 0x02, 0x00, 0x00, 0x00,
  0xff, 0xff, 0xff, 0xff, 0x10, 0x00, 0x00, 0x00, 0xdc, 0xe5, 0xff, 0xff,
  0x36, 0xfc, 0xff, 0xff, 0x00, 0x00, 0x00, 0x15, 0x04, 0x00, 0x00, 0x00,
  0x18, 0x00, 0x00, 0x00, 0x0c, 0x00, 0x00, 0x00, 0x04, 0x00, 0x00, 0x00,
  0xf8, 0xe5, 0xff, 0xff, 0x01, 0x00, 0x00, 0x00, 0x11, 0x00, 0x00, 0x00,
  0x02, 0x00, 0x00, 0x00, 0x10, 0x00, 0x00, 0x00, 0x02, 0x00, 0x00, 0x00,
  0xf8, 0xfa, 0xff, 0xff, 0x12, 0x00, 0x00, 0x00, 0x00, 0x00, 0x00, 0x12,
  0x01, 0x00, 0x00, 0x00, 0x78, 0xe6, 0xff, 0xff, 0x14, 0x00, 0x00, 0x00,
  0x12, 0x00, 0x00, 0x00, 0x18, 0x00, 0x00, 0x00, 0x40, 0x00, 0x00, 0x00,
  0x30, 0x00, 0x00, 0x00, 0x02, 0x00, 0x00, 0x00, 0x01, 0x00, 0x00, 0x00,
  0x10, 0x00, 0x00, 0x00, 0x18, 0x00, 0x00, 0x00, 0x6d, 0x6f, 0x64, 0x65,
  0x6c, 0x5f, 0x34, 0x36, 0x2f, 0x6c, 0x73, 0x74, 0x6d, 0x5f, 0x63, 0x65,
  0x6c, 0x6c, 0x5f, 0x38, 0x2f, 0x6d, 0x75, 0x6c, 0x00, 0x00, 0x00, 0x00,
  0x02, 0x00, 0x00, 0x00, 0xff, 0xff, 0xff, 0xff, 0x10, 0x00, 0x00, 0x00,
  0x70, 0xe6, 0xff, 0xff, 0x86, 0xff, 0xff, 0xff, 0x03, 0x00, 0x00, 0x00,
  0x10, 0x00, 0x00, 0x00, 0x04, 0x00, 0x00, 0x00, 0x01, 0x00, 0x00, 0x00,
  0x10, 0x00, 0x00, 0x00, 0x01, 0x00, 0x00, 0x00, 0x0c, 0x00, 0x00, 0x00,
  0xec, 0xe6, 0xff, 0xff, 0x14, 0x00, 0x00, 0x00, 0x11, 0x00, 0x00, 0x00,
  0x18, 0x00, 0x00, 0x00, 0x44, 0x00, 0x00, 0x00, 0x34, 0x00, 0x00, 0x00,
  0x02, 0x00, 0x00, 0x00, 0x01, 0x00, 0x00, 0x00, 0x10, 0x00, 0x00, 0x00,
  0x1e, 0x00, 0x00, 0x00, 0x6d, 0x6f, 0x64, 0x65, 0x6c, 0x5f, 0x34, 0x36,
  0x2f, 0x6c, 0x73, 0x74, 0x6d, 0x5f, 0x63, 0x65, 0x6c, 0x6c, 0x5f, 0x38,
  0x2f, 0x53, 0x69, 0x67, 0x6d, 0x6f, 0x69, 0x64, 0x5f, 0x31, 0x00, 0x00,
  0x02, 0x00, 0x00, 0x00, 0xff, 0xff, 0xff, 0xff, 0x10, 0x00, 0x00, 0x00,
  0x50, 0xe9, 0xff, 0xff, 0x00, 0x00, 0x0a, 0x00, 0x10, 0x00, 0x04, 0x00,
  0x08, 0x00, 0x0c, 0x00, 0x0a, 0x00, 0x00, 0x00, 0x03, 0x00, 0x00, 0x00,
  0x10, 0x00, 0x00, 0x00, 0x04, 0x00, 0x00, 0x00, 0x01, 0x00, 0x00, 0x00,
  0x0f, 0x00, 0x00, 0x00, 0x01, 0x00, 0x00, 0x00, 0x0b, 0x00, 0x00, 0x00,
  0x00, 0xfc, 0xff, 0xff, 0x0e, 0x00, 0x00, 0x00, 0x00, 0x00, 0x00, 0x0e,
  0x01, 0x00, 0x00, 0x00, 0x80, 0xe7, 0xff, 0xff, 0x14, 0x00, 0x00, 0x00,
  0x10, 0x00, 0x00, 0x00, 0x18, 0x00, 0x00, 0x00, 0x44, 0x00, 0x00, 0x00,
  0x34, 0x00, 0x00, 0x00, 0x02, 0x00, 0x00, 0x00, 0x01, 0x00, 0x00, 0x00,
  0x10, 0x00, 0x00, 0x00, 0x1c, 0x00, 0x00, 0x00, 0x6d, 0x6f, 0x64, 0x65,
  0x6c, 0x5f, 0x34, 0x36, 0x2f, 0x6c, 0x73, 0x74, 0x6d, 0x5f, 0x63, 0x65,
  0x6c, 0x6c, 0x5f, 0x38, 0x2f, 0x53, 0x69, 0x67, 0x6d, 0x6f, 0x69, 0x64,
  0x00, 0x00, 0x00, 0x00, 0x02, 0x00, 0x00, 0x00, 0xff, 0xff, 0xff, 0xff,
  0x10, 0x00, 0x00, 0x00, 0x7c, 0xe7, 0xff, 0xff, 0xd6, 0xfd, 0xff, 0xff,
  0x00, 0x00, 0x00, 0x23, 0x02, 0x00, 0x00, 0x00, 0x28, 0x00, 0x00, 0x00,
  0x10, 0x00, 0x00, 0x00, 0x04, 0x00, 0x00, 0x00, 0xf6, 0xe9, 0xff, 0xff,
  0x04, 0x00, 0x00, 0x00, 0x04, 0x00, 0x00, 0x00, 0x0b, 0x00, 0x00, 0x00,
  0x0c, 0x00, 0x00, 0x00, 0x0d, 0x00, 0x00, 0x00, 0x0e, 0x00, 0x00, 0x00,
  0x02, 0x00, 0x00, 0x00, 0x04, 0x00, 0x00, 0x00, 0x0a, 0x00, 0x00, 0x00,
  0xa8, 0xfc, 0xff, 0xff, 0x31, 0x00, 0x00, 0x00, 0x00, 0x00, 0x00, 0x31,
  0x01, 0x00, 0x00, 0x00, 0x28, 0xe8, 0xff, 0xff, 0x14, 0x00, 0x00, 0x00,
  0x0f, 0x00, 0x00, 0x00, 0x18, 0x00, 0x00, 0x00, 0x40, 0x00, 0x00, 0x00,
  0x30, 0x00, 0x00, 0x00, 0x02, 0x00, 0x00, 0x00, 0x01, 0x00, 0x00, 0x00,
  0x10, 0x00, 0x00, 0x00, 0x1b, 0x00, 0x00, 0x00, 0x6d, 0x6f, 0x64, 0x65,
  0x6c, 0x5f, 0x34, 0x36, 0x2f, 0x6c, 0x73, 0x74, 0x6d, 0x5f, 0x63, 0x65,
  0x6c, 0x6c, 0x5f, 0x38, 0x2f, 0x73, 0x70, 0x6c, 0x69, 0x74, 0x33, 0x00,
  0x02, 0x00, 0x00, 0x00, 0xff, 0xff, 0xff, 0xff, 0x10, 0x00, 0x00, 0x00,
  0x20, 0xe8, 0xff, 0xff, 0x7c, 0xe8, 0xff, 0xff, 0x14, 0x00, 0x00, 0x00,
  0x0e, 0x00, 0x00, 0x00, 0x18, 0x00, 0x00, 0x00, 0x40, 0x00, 0x00, 0x00,
  0x30, 0x00, 0x00, 0x00, 0x02, 0x00, 0x00, 0x00, 0x01, 0x00, 0x00, 0x00,
  0x10, 0x00, 0x00, 0x00, 0x1b, 0x00, 0x00, 0x00, 0x6d, 0x6f, 0x64, 0x65,
  0x6c, 0x5f, 0x34, 0x36, 0x2f, 0x6c, 0x73, 0x74, 0x6d, 0x5f, 0x63, 0x65,
  0x6c, 0x6c, 0x5f, 0x38, 0x2f, 0x73, 0x70, 0x6c, 0x69, 0x74, 0x32, 0x00,
  0x02, 0x00, 0x00, 0x00, 0xff, 0xff, 0xff, 0xff, 0x10, 0x00, 0x00, 0x00,
  0x74, 0xe8, 0xff, 0xff, 0xd0, 0xe8, 0xff, 0xff, 0x14, 0x00, 0x00, 0x00,
  0x0d, 0x00, 0x00, 0x00, 0x18, 0x00, 0x00, 0x00, 0x40, 0x00, 0x00, 0x00,
  0x30, 0x00, 0x00, 0x00, 0x02, 0x00, 0x00, 0x00, 0x01, 0x00, 0x00, 0x00,
  0x10, 0x00, 0x00, 0x00, 0x1b, 0x00, 0x00, 0x00, 0x6d, 0x6f, 0x64, 0x65,
  0x6c, 0x5f, 0x34, 0x36, 0x2f, 0x6c, 0x73, 0x74, 0x6d, 0x5f, 0x63, 0x65,
  0x6c, 0x6c, 0x5f, 0x38, 0x2f, 0x73, 0x70, 0x6c, 0x69, 0x74, 0x31, 0x00,
  0x02, 0x00, 0x00, 0x00, 0xff, 0xff, 0xff, 0xff, 0x10, 0x00, 0x00, 0x00,
  0xc8, 0xe8, 0xff, 0xff, 0x24, 0xe9, 0xff, 0xff, 0x14, 0x00, 0x00, 0x00,
  0x0c, 0x00, 0x00, 0x00, 0x18, 0x00, 0x00, 0x00, 0x40, 0x00, 0x00, 0x00,
  0x30, 0x00, 0x00, 0x00, 0x02, 0x00, 0x00, 0x00, 0x01, 0x00, 0x00, 0x00,
  0x10, 0x00, 0x00, 0x00, 0x1a, 0x00, 0x00, 0x00, 0x6d, 0x6f, 0x64, 0x65,
  0x6c, 0x5f, 0x34, 0x36, 0x2f, 0x6c, 0x73, 0x74, 0x6d, 0x5f, 0x63, 0x65,
  0x6c, 0x6c, 0x5f, 0x38, 0x2f, 0x73, 0x70, 0x6c, 0x69, 0x74, 0x00, 0x00,
  0x02, 0x00, 0x00, 0x00, 0xff, 0xff, 0xff, 0xff, 0x10, 0x00, 0x00, 0x00,
  0x1c, 0xe9, 0xff, 0xff, 0x76, 0xff, 0xff, 0xff, 0x00, 0x00, 0x00, 0x0b,
  0x01, 0x00, 0x00, 0x00, 0x18, 0x00, 0x00, 0x00, 0x0c, 0x00, 0x00, 0x00,
  0x04, 0x00, 0x00, 0x00, 0x38, 0xe9, 0xff, 0xff, 0x01, 0x00, 0x00, 0x00,
  0x0a, 0x00, 0x00, 0x00, 0x02, 0x00, 0x00, 0x00, 0x09, 0x00, 0x00, 0x00,
  0x03, 0x00, 0x00, 0x00, 0xa8, 0xe9, 0xff, 0xff, 0x14, 0x00, 0x00, 0x00,
  0x0b, 0x00, 0x00, 0x00, 0x18, 0x00, 0x00, 0x00, 0x44, 0x00, 0x00, 0x00,
  0x34, 0x00, 0x00, 0x00, 0x02, 0x00, 0x00, 0x00, 0x01, 0x00, 0x00, 0x00,
  0x40, 0x00, 0x00, 0x00, 0x1c, 0x00, 0x00, 0x00, 0x6d, 0x6f, 0x64, 0x65,
  0x6c, 0x5f, 0x34, 0x36, 0x2f, 0x6c, 0x73, 0x74, 0x6d, 0x5f, 0x63, 0x65,
  0x6c, 0x6c, 0x5f, 0x38, 0x2f, 0x42, 0x69, 0x61, 0x73, 0x41, 0x64, 0x64,
  0x00, 0x00, 0x00, 0x00, 0x02, 0x00, 0x00, 0x00, 0xff, 0xff, 0xff, 0xff,
  0x40, 0x00, 0x00, 0x00, 0x0c, 0xec, 0xff, 0xff, 0x00, 0x00, 0x0e, 0x00,
  0x18, 0x00, 0x08, 0x00, 0x0c, 0x00, 0x10, 0x00, 0x07, 0x00, 0x14, 0x00,
  0x0e, 0x00, 0x00, 0x00, 0x00, 0x00, 0x00, 0x0b, 0x01, 0x00, 0x00, 0x00,
  0x18, 0x00, 0x00, 0x00, 0x0c, 0x00, 0x00, 0x00, 0x04, 0x00, 0x00, 0x00,
  0xd0, 0xe9, 0xff, 0xff, 0x01, 0x00, 0x00, 0x00, 0x09, 0x00, 0x00, 0x00,
  0x02, 0x00, 0x00, 0x00, 0x07, 0x00, 0x00, 0x00, 0x08, 0x00, 0x00, 0x00,
  0x00, 0x00, 0x0a, 0x00, 0x08, 0x00, 0x00, 0x00, 0x00, 0x00, 0x04, 0x00,
  0x0a, 0x00, 0x00, 0x00, 0x01, 0x00, 0x00, 0x00, 0x54, 0xea, 0xff, 0xff,
  0x14, 0x00, 0x00, 0x00, 0x0a, 0x00, 0x00, 0x00, 0x18, 0x00, 0x00, 0x00,
  0x40, 0x00, 0x00, 0x00, 0x30, 0x00, 0x00, 0x00, 0x02, 0x00, 0x00, 0x00,
  0x01, 0x00, 0x00, 0x00, 0x40, 0x00, 0x00, 0x00, 0x18, 0x00, 0x00, 0x00,
  0x6d, 0x6f, 0x64, 0x65, 0x6c, 0x5f, 0x34, 0x36, 0x2f, 0x6c, 0x73, 0x74,
  0x6d, 0x5f, 0x63, 0x65, 0x6c, 0x6c, 0x5f, 0x38, 0x2f, 0x61, 0x64, 0x64,
  0x00, 0x00, 0x00, 0x00, 0x02, 0x00, 0x00, 0x00, 0xff, 0xff, 0xff, 0xff,
  0x40, 0x00, 0x00, 0x00, 0x4c, 0xea, 0xff, 0xff, 0x76, 0xff, 0xff, 0xff,
  0x00, 0x00, 0x00, 0x08, 0x18, 0x00, 0x00, 0x00, 0x0c, 0x00, 0x00, 0x00,
  0x04, 0x00, 0x00, 0x00, 0x64, 0xea, 0xff, 0xff, 0x01, 0x00, 0x00, 0x00,
  0x08, 0x00, 0x00, 0x00, 0x03, 0x00, 0x00, 0x00, 0x01, 0x00, 0x00, 0x00,
  0x06, 0x00, 0x00, 0x00, 0xff, 0xff, 0xff, 0xff, 0xd8, 0xea, 0xff, 0xff,
  0x14, 0x00, 0x00, 0x00, 0x09, 0x00, 0x00, 0x00, 0x18, 0x00, 0x00, 0x00,
  0x44, 0x00, 0x00, 0x00, 0x34, 0x00, 0x00, 0x00, 0x02, 0x00, 0x00, 0x00,
  0x01, 0x00, 0x00, 0x00, 0x40, 0x00, 0x00, 0x00, 0x1e, 0x00, 0x00, 0x00,
  0x6d, 0x6f, 0x64, 0x65, 0x6c, 0x5f, 0x34, 0x36, 0x2f, 0x6c, 0x73, 0x74,
  0x6d, 0x5f, 0x63, 0x65, 0x6c, 0x6c, 0x5f, 0x38, 0x2f, 0x4d, 0x61, 0x74,
  0x4d, 0x75, 0x6c, 0x5f, 0x31, 0x32, 0x00, 0x00, 0x02, 0x00, 0x00, 0x00,
  0xff, 0xff, 0xff, 0xff, 0x40, 0x00, 0x00, 0x00, 0x3c, 0xed, 0xff, 0xff,
  0x00, 0x00, 0x0e, 0x00, 0x14, 0x00, 0x00, 0x00, 0x08, 0x00, 0x0c, 0x00,
  0x07, 0x00, 0x10, 0x00, 0x0e, 0x00, 0x00, 0x00, 0x00, 0x00, 0x00, 0x08,
  0x18, 0x00, 0x00, 0x00, 0x0c, 0x00, 0x00, 0x00, 0x04, 0x00, 0x00, 0x00,
  0xfc, 0xea, 0xff, 0xff, 0x01, 0x00, 0x00, 0x00, 0x07, 0x00, 0x00, 0x00,
  0x03, 0x00, 0x00, 0x00, 0x00, 0x00, 0x00, 0x00, 0x05, 0x00, 0x00, 0x00,
  0xff, 0xff, 0xff, 0xff, 0x0c, 0x00, 0x10, 0x00, 0x0b, 0x00, 0x00, 0x00,
  0x0c, 0x00, 0x04, 0x00, 0x0c, 0x00, 0x00, 0x00, 0x09, 0x00, 0x00, 0x00,
  0x00, 0x00, 0x00, 0x09, 0x01, 0x00, 0x00, 0x00, 0x8c, 0xeb, 0xff, 0xff,
  0x14, 0x00, 0x00, 0x00, 0x08, 0x00, 0x00, 0x00, 0x18, 0x00, 0x00, 0x00,
  0x44, 0x00, 0x00, 0x00, 0x34, 0x00, 0x00, 0x00, 0x02, 0x00, 0x00, 0x00,
  0x01, 0x00, 0x00, 0x00, 0x40, 0x00, 0x00, 0x00, 0x1c, 0x00, 0x00, 0x00,
  0x6d, 0x6f, 0x64, 0x65, 0x6c, 0x5f, 0x34, 0x36, 0x2f, 0x6c, 0x73, 0x74,
  0x6d, 0x5f, 0x63, 0x65, 0x6c, 0x6c, 0x5f, 0x38, 0x2f, 0x4d, 0x61, 0x74,
  0x4d, 0x75, 0x6c, 0x31, 0x00, 0x00, 0x00, 0x00, 0x02, 0x00, 0x00, 0x00,
  0xff, 0xff, 0xff, 0xff, 0x40, 0x00, 0x00, 0x00, 0x88, 0xeb, 0xff, 0xff,
  0xea, 0xed, 0xff, 0xff, 0x04, 0x00, 0x00, 0x00, 0x00, 0x10, 0x00, 0x00,
  0x20, 0x0b, 0x94, 0x3d, 0x22, 0x05, 0x39, 0x3d, 0xd6, 0x60, 0xe7, 0x3c,
  0x09, 0x66, 0x77, 0xbd, 0xd9, 0xef, 0x15, 0x3e, 0x10, 0x21, 0x94, 0xbe,
  0xaf, 0x25, 0xb4, 0x3d, 0xc7, 0x01, 0xaf, 0x3c, 0x72, 0xcd, 0x67, 0x3d,
  0x25, 0x64, 0x46, 0x3d, 0x06, 0x2d, 0x48, 0xbe, 0x48, 0x4e, 0xa9, 0x3e,
  0x98, 0x01, 0xa7, 0xb9, 0x88, 0x2b, 0x03, 0x3e, 0x53, 0x1f, 0xb1, 0x3d,
  0x0b, 0xef, 0x84, 0x3e, 0x20, 0xbd, 0xc5, 0x3d, 0x24, 0xf4, 0x8e, 0x3d,
  0xcf, 0x4c, 0xb7, 0xbd, 0xb3, 0xae, 0x0e, 0xbe, 0xf9, 0xcc, 0xa2, 0x3d,
  0x8a, 0x60, 0x08, 0x3d, 0x22, 0xa1, 0x0c, 0x3e, 0xe3, 0xaa, 0x5c, 0x3c,
  0xf7, 0x29, 0x03, 0x3c, 0xda, 0x81, 0xb0, 0x3d, 0x42, 0xa7, 0xd5, 0xbd,
  0x46, 0xb6, 0x2e, 0xbd, 0x45, 0xd2, 0x2c, 0x3e, 0xbd, 0x61, 0x40, 0x3e,
  0xbb, 0xce, 0x9d, 0x3d, 0xbd, 0xdc, 0x05, 0xbe, 0x13, 0xbc, 0xdd, 0x3d,
  0xfe, 0x9b, 0x88, 0x3d, 0xe9, 0x0c, 0x9a, 0xbb, 0xb4, 0xfa, 0xa9, 0xbd,
  0x61, 0x4f, 0xe2, 0xbd, 0x18, 0xb2, 0xa1, 0xbe, 0x40, 0xce, 0xea, 0xbc,
  0x9c, 0xb6, 0xab, 0x3c, 0xe0, 0xbb, 0xe0, 0x3d, 0xe8, 0x81, 0x53, 0xbe,
  0xed, 0x9f, 0x86, 0xbd, 0x46, 0xd3, 0x44, 0x3e, 0x66, 0x16, 0x3f, 0x3e,
  0x1c, 0x8f, 0x27, 0x3d, 0xf2, 0x3d, 0xac, 0xbd, 0x1c, 0x80, 0x35, 0x3d,
  0x40, 0x7f, 0xc7, 0xbd, 0x3f, 0x1c, 0x00, 0x3d, 0x73, 0xd3, 0xe4, 0x3d,
  0x81, 0x47, 0xf2, 0x3c, 0x90, 0xc5, 0x75, 0x3d, 0xfb, 0xf1, 0xd3, 0x3d,
  0x4f, 0x86, 0x7a, 0xbe, 0x52, 0x36, 0xa6, 0x3d, 0xa8, 0x35, 0xb3, 0xbd,
  0xe7, 0xa6, 0x23, 0xbe, 0x90, 0x4a, 0x52, 0x3d, 0x41, 0x70, 0xdf, 0x3a,
  0xd3, 0x67, 0x6e, 0x3e, 0xb0, 0xde, 0x0a, 0xbe, 0xbb, 0x7a, 0x16, 0x3c,
  0xba, 0x92, 0xd2, 0x3d, 0x2a, 0x60, 0x55, 0x3e, 0x70, 0x8b, 0xb5, 0xbd,
  0x88, 0xd5, 0xad, 0x3e, 0xf9, 0x24, 0x7c, 0x3d, 0xa5, 0x76, 0x03, 0xbe,
  0x63, 0xe7, 0xa2, 0xbc, 0xb4, 0xcb, 0x38, 0xbc, 0xa8, 0xbe, 0xdd, 0x3d,
  0x81, 0x79, 0x2c, 0x3d, 0x61, 0xe6, 0xee, 0xbc, 0x67, 0xd9, 0x08, 0xbe,
  0x55, 0xf1, 0x70, 0xbd, 0xf2, 0x00, 0x24, 0xbe, 0xd9, 0x4e, 0x87, 0x3d,
  0xb2, 0xe4, 0x18, 0xbe, 0x00, 0x7f, 0x94, 0xbd, 0x86, 0xbf, 0x1a, 0x3d,
  0x85, 0x60, 0x44, 0x3d, 0x9a, 0xf6, 0xba, 0x3d, 0xf3, 0xd3, 0x58, 0x3d,
  0x81, 0xf8, 0xae, 0xbd, 0x6a, 0x50, 0x6f, 0xbe, 0x45, 0xe0, 0x91, 0x3d,
  0x6f, 0x31, 0xd4, 0xbd, 0xcf, 0x93, 0xf3, 0x3d, 0xed, 0x2f, 0x00, 0xbd,
  0x64, 0xe7, 0xee, 0x3d, 0x5a, 0x5e, 0x4f, 0xbe, 0xc0, 0xec, 0x15, 0x3d,
  0xd1, 0x19, 0xd5, 0x3d, 0x4e, 0x8f, 0x08, 0x3e, 0x79, 0x8b, 0xac, 0xbd,
  0x6a, 0x5d, 0xc0, 0x3b, 0xd8, 0xc8, 0xc7, 0xbd, 0xc8, 0x8f, 0xea, 0xbd,
  0xc6, 0x96, 0x9b, 0x3e, 0x08, 0x5d, 0x57, 0xbe, 0xbe, 0x8e, 0x93, 0xbb,
  0x73, 0x33, 0x66, 0x3d, 0x6f, 0xc7, 0xf4, 0xbd, 0x59, 0x53, 0x43, 0x3e,
  0x1d, 0x85, 0x16, 0xbe, 0x5d, 0x0b, 0xdf, 0x3c, 0xbd, 0x2e, 0x2e, 0xbd,
  0xf2, 0xba, 0x44, 0x3e, 0x74, 0xbd, 0x11, 0xbe, 0x07, 0x41, 0xbb, 0x3d,
  0x9d, 0xbf, 0x29, 0x3d, 0x73, 0x1e, 0x83, 0x3e, 0xbc, 0x3d, 0x17, 0x3d,
  0x7a, 0xf4, 0x55, 0xbe, 0x37, 0xd5, 0xc1, 0x3d, 0x21, 0xde, 0x46, 0x3e,
  0x25, 0xd3, 0x79, 0x3e, 0x5b, 0xdd, 0x94, 0xbd, 0xd3, 0x30, 0x80, 0xbd,
  0x8a, 0xce, 0x17, 0x3e, 0x9c, 0xa5, 0x04, 0xbe, 0x32, 0x4b, 0x54, 0x3e,
  0x3d, 0x5e, 0xf0, 0xbd, 0xbe, 0x39, 0xcc, 0xbc, 0x7b, 0x11, 0x4f, 0xbe,
  0x50, 0x38, 0xb8, 0xbd, 0xc7, 0x3d, 0x32, 0x3e, 0x77, 0x31, 0x11, 0x3e,
  0xb8, 0x98, 0x55, 0xbc, 0x8b, 0x22, 0x26, 0x3e, 0xf9, 0x07, 0xc4, 0x3b,
  0xa0, 0xb0, 0x20, 0xbe, 0xdc, 0x45, 0x99, 0x3c, 0x1f, 0xe1, 0xbe, 0x3e,
  0x66, 0x6a, 0xfe, 0x3d, 0xc7, 0x6e, 0xcc, 0x3d, 0xdf, 0x51, 0x71, 0x3d,
  0xfe, 0x26, 0x81, 0x3a, 0x7f, 0x57, 0xf1, 0xbd, 0x59, 0xeb, 0xa4, 0xbd,
  0x3e, 0x29, 0xb8, 0xbd, 0xf7, 0x28, 0x21, 0xbe, 0x07, 0x6e, 0xa3, 0x3d,
  0x3b, 0x9f, 0xf2, 0xbc, 0xff, 0x32, 0x19, 0xbe, 0xc7, 0x61, 0xb8, 0x3d,
  0x4d, 0x9e, 0x6c, 0x3e, 0x19, 0xdd, 0xfb, 0x3c, 0xa1, 0x97, 0xf0, 0x3d,
  0xc1, 0x37, 0x3a, 0xbb, 0x54, 0x9c, 0x31, 0x3d, 0xa4, 0x22, 0x07, 0x3d,
  0xc0, 0x41, 0x84, 0xbd, 0x4c, 0x57, 0xfc, 0xbd, 0x9c, 0x66, 0x53, 0x3e,
  0xee, 0x4b, 0x94, 0x3e, 0xa9, 0xec, 0x07, 0x3d, 0xb6, 0x3f, 0x62, 0xbe,
  0xaa, 0x31, 0xfb, 0x3d, 0xb2, 0xf3, 0x1c, 0xbe, 0x3c, 0xe0, 0xa9, 0x3d,
  0x50, 0xbb, 0x9e, 0xbd, 0x6b, 0x8b, 0x2a, 0x3e, 0xbf, 0x0a, 0xaa, 0xbc,
  0x1f, 0xbc, 0x0a, 0xbe, 0x61, 0x4a, 0xc1, 0x3d, 0x6c, 0x52, 0xb7, 0xbc,
  0xad, 0x31, 0x99, 0xbe, 0x20, 0x23, 0x17, 0x3e, 0x13, 0x23, 0x14, 0x3c,
  0xd4, 0x3a, 0xa0, 0xbd, 0xea, 0x52, 0xa1, 0x3c, 0x27, 0xd9, 0x86, 0x3e,
  0xd5, 0x49, 0x2b, 0xbd, 0x5b, 0x67, 0xfe, 0x3d, 0xf8, 0xe8, 0xb1, 0xbd,
  0xc6, 0xda, 0x79, 0x3d, 0x87, 0x61, 0xc0, 0x3d, 0x12, 0xa2, 0xe6, 0xbc,
  0x88, 0x88, 0xb4, 0xbd, 0x1a, 0x34, 0x62, 0x3d, 0x66, 0x4d, 0xc8, 0x3d,
  0xf7, 0xe1, 0x37, 0xbd, 0x86, 0x32, 0x3a, 0x3d, 0x65, 0x0d, 0x1b, 0xbb,
  0x78, 0x80, 0x33, 0xbd, 0xec, 0x89, 0xb3, 0x3d, 0xc1, 0x45, 0xa4, 0xbd,
  0x1f, 0x29, 0x8e, 0xbd, 0x5a, 0x72, 0x57, 0x3e, 0x9e, 0x11, 0xd5, 0xbd,
  0x6f, 0xcb, 0xed, 0xbd, 0x6a, 0x90, 0xba, 0x3d, 0xef, 0xc4, 0x2f, 0xbd,
  0xd6, 0x06, 0x5c, 0x3e, 0xfc, 0xfc, 0xd3, 0xbc, 0x68, 0x67, 0x18, 0xbd,
  0xee, 0xa7, 0x06, 0xbd, 0x8a, 0x30, 0x65, 0xbd, 0x75, 0x83, 0x89, 0x3b,
  0xe5, 0x2c, 0xfb, 0x3d, 0xf2, 0xf5, 0xbd, 0x3b, 0x2c, 0xdd, 0x91, 0x3e,
  0xb9, 0x2b, 0x5c, 0xbd, 0xab, 0xd3, 0x8c, 0xbe, 0x37, 0x8f, 0xe1, 0xbc,
  0x8d, 0x4d, 0x40, 0x3d, 0x32, 0x4f, 0x2d, 0x3e, 0x60, 0x95, 0x19, 0x3e,
  0x7e, 0xe4, 0x1b, 0xbe, 0xde, 0x58, 0x10, 0x3d, 0xa5, 0x2b, 0x46, 0xbd,
  0x95, 0x11, 0xb8, 0xbd, 0x95, 0xfe, 0x84, 0x3e, 0x98, 0x09, 0xa8, 0x3c,
  0x87, 0x23, 0xc4, 0x3d, 0xa1, 0x0b, 0x8a, 0xbd, 0xe5, 0x39, 0xf0, 0xbd,
  0x47, 0x32, 0x23, 0x3e, 0x3a, 0x83, 0x02, 0x3d, 0x86, 0xc8, 0x23, 0xbe,
  0xfb, 0x92, 0x8d, 0xbe, 0x28, 0xd8, 0x33, 0xbb, 0xe7, 0xd4, 0x78, 0xbd,
  0x96, 0x48, 0x60, 0x3d, 0x38, 0x04, 0xc1, 0xbd, 0xee, 0x4e, 0xac, 0xbd,
  0xee, 0x40, 0xe5, 0x3d, 0xb4, 0x8a, 0xac, 0x3d, 0x28, 0xdd, 0x5f, 0x3e,
  0xac, 0xc4, 0xab, 0x3d, 0xe9, 0xcb, 0x72, 0x3c, 0xce, 0x3f, 0x73, 0xbd,
  0x5a, 0x4d, 0x0e, 0xbd, 0xea, 0x78, 0x82, 0x3d, 0xc2, 0xf6, 0x38, 0xbc,
  0xb8, 0x4f, 0xc7, 0x3c, 0x35, 0xf5, 0x27, 0xbd, 0xb6, 0x69, 0x49, 0xbc,
  0xe0, 0x2e, 0xa8, 0x3d, 0x6b, 0x7e, 0x70, 0xbe, 0x8f, 0x87, 0x72, 0x3c,
  0x6f, 0x26, 0xed, 0xbd, 0xe3, 0xe5, 0x44, 0x3e, 0x2d, 0xd6, 0xd4, 0xbd,
  0x1e, 0xfb, 0xf9, 0x3d, 0xd4, 0x13, 0x23, 0x3d, 0x3a, 0xed, 0x42, 0x3e,
  0xf4, 0x82, 0x30, 0xbe, 0xb0, 0x36, 0x80, 0x3e, 0xac, 0x3a, 0x67, 0xbe,
  0x30, 0xff, 0xfb, 0xbd, 0x6e, 0x1b, 0x8c, 0x3c, 0x3e, 0xa5, 0x19, 0xbe,
  0xd6, 0x7a, 0x3a, 0x3e, 0xc7, 0xdd, 0xfb, 0x3c, 0x1b, 0x8e, 0x9d, 0xbc,
  0x5f, 0x4f, 0xa0, 0x3d, 0x76, 0x9f, 0x83, 0x3e, 0x66, 0xfe, 0x51, 0x3e,
  0x5a, 0x4d, 0x0a, 0xbd, 0x01, 0xaf, 0x87, 0x3d, 0x24, 0x39, 0x32, 0x3d,
  0x50, 0xf7, 0xe4, 0xbc, 0xef, 0x97, 0x9b, 0xbd, 0x2b, 0x63, 0x7d, 0x3d,
  0xda, 0x42, 0xc7, 0x3d, 0x96, 0xa8, 0x30, 0xbe, 0xf5, 0x0a, 0xb0, 0xbd,
  0x4c, 0x4d, 0xb6, 0x3a, 0xb8, 0x7e, 0x51, 0xbe, 0x16, 0x78, 0xa9, 0xbd,
  0xa2, 0x08, 0x36, 0x3e, 0x2a, 0xdd, 0x0d, 0x3d, 0x60, 0x48, 0xe7, 0x3d,
  0x9f, 0x4e, 0x10, 0xbe, 0x17, 0x26, 0xea, 0x3d, 0x50, 0xe8, 0x3e, 0x3e,
  0x8f, 0xca, 0xfa, 0xbb, 0xfa, 0xe6, 0x14, 0xbe, 0x58, 0xc6, 0xdc, 0xbd,
  0x1f, 0xc4, 0x4d, 0x3e, 0x32, 0xc2, 0x06, 0x3d, 0x13, 0xff, 0x5f, 0xbd,
  0xe3, 0x23, 0x55, 0x3d, 0xfc, 0xfd, 0x68, 0xbd, 0x70, 0x15, 0xf5, 0x3a,
  0x7a, 0xff, 0x94, 0x3d, 0x68, 0x13, 0x1d, 0x3c, 0xd4, 0x8c, 0xfc, 0x3d,
  0x51, 0x7b, 0x03, 0xbe, 0x52, 0xbb, 0xfe, 0xbd, 0x7d, 0xbd, 0x89, 0x3d,
  0x03, 0xa7, 0x68, 0xbd, 0x0d, 0xb3, 0x0c, 0xbe, 0xb4, 0x34, 0x56, 0x3d,
  0xff, 0xee, 0xca, 0xbd, 0x55, 0x4e, 0xc8, 0x3d, 0x12, 0x30, 0x8b, 0x3d,
  0xfa, 0xb8, 0x7f, 0xbd, 0x96, 0x56, 0xa0, 0xbd, 0x9f, 0x30, 0x40, 0x3d,
  0x8a, 0xb7, 0x30, 0xbe, 0x6f, 0x75, 0xd6, 0xbc, 0xc6, 0x25, 0xb3, 0xbe,
  0xa0, 0x30, 0xd3, 0x3c, 0xb9, 0x87, 0x4b, 0xbe, 0x30, 0x78, 0xa8, 0xbe,
  0xe4, 0x42, 0xc9, 0x3d, 0xdf, 0x21, 0x8c, 0x3c, 0xec, 0x94, 0x86, 0xbd,
  0x0b, 0x31, 0xe2, 0xbd, 0xc5, 0x9d, 0x43, 0xbe, 0x37, 0x7a, 0x07, 0x3e,
  0xff, 0xd9, 0x1d, 0x3e, 0xd7, 0xae, 0x50, 0xbc, 0xe0, 0x25, 0x2f, 0x3d,
  0x47, 0xa5, 0x04, 0x3e, 0xe9, 0xfb, 0xf0, 0x3d, 0xde, 0x9f, 0xfa, 0xbc,
  0x79, 0x04, 0x06, 0x3e, 0x22, 0x4b, 0x9d, 0xbd, 0x4a, 0x79, 0x81, 0x3d,
  0xd6, 0x53, 0x82, 0xbd, 0x53, 0x0b, 0x75, 0x3d, 0x1e, 0xa6, 0xac, 0x3c,
  0xf8, 0xa6, 0x13, 0x3e, 0x7b, 0xe5, 0x35, 0xbe, 0xde, 0x4d, 0x8e, 0xbd,
  0x2d, 0x54, 0xf2, 0xbd, 0x53, 0xe3, 0x15, 0x3b, 0xca, 0xab, 0x9d, 0xbd,
  0x8b, 0xaa, 0xcf, 0x3c, 0xf1, 0xbe, 0x32, 0x3d, 0xc1, 0x08, 0xff, 0x3d,
  0x26, 0x5c, 0xd5, 0x3d, 0x19, 0x6d, 0x7a, 0x3d, 0x5a, 0xad, 0x1c, 0x3d,
  0x87, 0x3f, 0xfa, 0x3c, 0x46, 0xe2, 0x0e, 0x3e, 0xcb, 0x37, 0x3e, 0x3d,
  0x8f, 0x36, 0xc7, 0x3d, 0xe5, 0xc1, 0xec, 0x3d, 0xed, 0x71, 0xaa, 0x3b,
  0xe2, 0x5b, 0x08, 0xbe, 0x31, 0x59, 0x00, 0x3e, 0xe2, 0x12, 0x8a, 0x3d,
  0x92, 0xa8, 0x2c, 0x3e, 0xad, 0x94, 0x5a, 0x3e, 0x4a, 0x9a, 0x0b, 0x3d,
  0x9e, 0x8a, 0x8e, 0x3e, 0x8e, 0x95, 0x4d, 0xbd, 0x63, 0x5a, 0xac, 0xbc,
  0x05, 0x42, 0x7e, 0xbc, 0x6a, 0x44, 0xc0, 0xbd, 0x49, 0x25, 0xec, 0xbd,
  0xa5, 0x08, 0xca, 0xbd, 0x23, 0xe6, 0xab, 0x3d, 0xaf, 0x95, 0x26, 0xbe,
  0x5f, 0x9c, 0xea, 0xbd, 0xb8, 0xd2, 0x8a, 0x3d, 0xe4, 0x0a, 0x4a, 0xbd,
  0x1b, 0x28, 0x07, 0xbe, 0xd8, 0x8d, 0x67, 0x3e, 0xe7, 0xbf, 0xb8, 0xbd,
  0x14, 0x3a, 0x79, 0xbd, 0x21, 0x13, 0x95, 0xbd, 0x04, 0x6c, 0x33, 0xbe,
  0xd4, 0xb9, 0xac, 0x3c, 0x17, 0x40, 0x14, 0xbd, 0xdf, 0xe8, 0x17, 0x3d,
  0x56, 0x1d, 0x05, 0x3e, 0x21, 0x69, 0x8c, 0xbe, 0x18, 0xc2, 0x8a, 0xbd,
  0xb2, 0xde, 0x74, 0xbe, 0x28, 0x67, 0xe8, 0x3d, 0x39, 0x27, 0xf7, 0xbc,
  0x89, 0x88, 0x01, 0xbd, 0x5e, 0xeb, 0x02, 0xbd, 0x5c, 0xb5, 0x94, 0xbd,
  0x7a, 0x83, 0x33, 0xbe, 0x00, 0xa4, 0xd8, 0xbd, 0x5a, 0xa6, 0xde, 0xbd,
  0x46, 0xc2, 0xea, 0xbb, 0x57, 0x56, 0x2b, 0x3e, 0xa7, 0xbc, 0x30, 0x3c,
  0xfa, 0x1c, 0x2c, 0xbe, 0x2e, 0xfd, 0xd2, 0x3d, 0x79, 0x13, 0x6f, 0x3d,
  0x3e, 0x2c, 0x52, 0xbd, 0xe2, 0xd6, 0x18, 0xbd, 0x74, 0x7e, 0xb8, 0xbc,
  0xe7, 0x69, 0x04, 0x3e, 0x8a, 0xe4, 0xa9, 0x3d, 0x51, 0x3e, 0xaa, 0x3c,
  0xdc, 0xd7, 0xb1, 0x3c, 0x51, 0xc5, 0x18, 0xbd, 0x3a, 0x68, 0x1f, 0xbe,
  0x99, 0x3a, 0x25, 0x3e, 0xda, 0xe1, 0x8f, 0xbe, 0x73, 0xb8, 0x99, 0x3e,
  0xe1, 0x86, 0x8e, 0xbe, 0x8b, 0x63, 0x8f, 0xbd, 0x26, 0x85, 0xfa, 0xbd,
  0xf0, 0xd9, 0xfd, 0x3d, 0x90, 0x7a, 0x22, 0x3d, 0xf9, 0x6d, 0x79, 0x3e,
  0x0d, 0xdf, 0x8f, 0x3d, 0x1b, 0x53, 0x3c, 0xbe, 0xd7, 0xf9, 0x03, 0xbe,
  0xb9, 0x4d, 0x62, 0xbe, 0x82, 0x4e, 0xfa, 0x3d, 0xe8, 0xd8, 0x07, 0xbd,
  0xb3, 0xc8, 0x26, 0xbc, 0x1e, 0xe6, 0x8d, 0x3b, 0xcc, 0xfe, 0x95, 0x3d,
  0xec, 0x3a, 0x78, 0x3d, 0x25, 0x69, 0x1c, 0x3e, 0xb1, 0x39, 0xfd, 0xbc,
  0x0d, 0x33, 0xed, 0x3b, 0xaa, 0x38, 0x02, 0xbe, 0x6f, 0xe1, 0xbd, 0xbd,
  0x34, 0xb4, 0x7a, 0xbc, 0x04, 0x95, 0x08, 0xbe, 0x3e, 0x04, 0x04, 0xbe,
  0x2a, 0x2e, 0x06, 0x3e, 0xba, 0xbe, 0x6a, 0x3d, 0xab, 0xac, 0x5e, 0xbe,
  0x3f, 0xda, 0x06, 0x3e, 0x09, 0x64, 0x33, 0xbe, 0x13, 0xa0, 0x05, 0x3c,
  0x36, 0x77, 0x00, 0x3e, 0xaa, 0x62, 0xf3, 0x3c, 0xf0, 0x39, 0xfb, 0x3d,
  0x8f, 0x6b, 0xa1, 0xbd, 0x0c, 0xfc, 0xce, 0xbc, 0x73, 0x2a, 0x77, 0xbd,
  0x99, 0x44, 0xf0, 0x3d, 0x89, 0xdd, 0x46, 0xbe, 0xad, 0x8a, 0x86, 0xbe,
  0xce, 0xf8, 0x75, 0x3d, 0xda, 0x6b, 0x87, 0x3d, 0x07, 0x2f, 0x2c, 0xbe,
  0xfb, 0xcc, 0x27, 0xbc, 0xf6, 0xc4, 0x2d, 0xbe, 0x81, 0x0d, 0xef, 0xbd,
  0x28, 0xf2, 0x81, 0x3e, 0xa3, 0x0e, 0x15, 0xbd, 0xf1, 0xb6, 0x4e, 0xbe,
  0xcd, 0x77, 0x1a, 0x3d, 0x96, 0x3d, 0x24, 0x3e, 0x13, 0x54, 0xab, 0x3e,
  0x35, 0xd8, 0xa1, 0x3c, 0xf9, 0xb4, 0xbe, 0x3d, 0x1b, 0xf0, 0x24, 0x3d,
  0x22, 0x60, 0x1d, 0xbe, 0x38, 0xd3, 0x11, 0xbd, 0x4c, 0x53, 0x0c, 0xbe,
  0x6f, 0x5d, 0x86, 0xbd, 0x0f, 0xf0, 0xb8, 0x3d, 0x0e, 0x1b, 0x0c, 0x3e,
  0xd1, 0x37, 0x26, 0xbc, 0x6d, 0x03, 0x22, 0xbe, 0x7f, 0x76, 0x2e, 0xbe,
  0x4a, 0x2f, 0xd8, 0x3d, 0x87, 0x4b, 0xab, 0xbc, 0x49, 0x30, 0x50, 0x3b,
  0xa5, 0xc9, 0x24, 0x3d, 0x5c, 0x61, 0x98, 0xbc, 0x72, 0x40, 0xfa, 0xbd,
  0x67, 0xf4, 0xae, 0x3c, 0x3a, 0x4a, 0x18, 0x3d, 0x99, 0xf7, 0x58, 0xbd,
  0xbf, 0xd8, 0x8a, 0x3e, 0x93, 0xab, 0x42, 0xbc, 0x53, 0x4e, 0x20, 0xbe,
  0x82, 0xe6, 0x1a, 0x3e, 0xaa, 0x9e, 0x24, 0xbe, 0x66, 0x43, 0x3a, 0xbe,
  0x96, 0x5d, 0xe9, 0x3d, 0x8c, 0x1c, 0x6f, 0x3e, 0x2f, 0xf8, 0xf5, 0xbd,
  0x6e, 0x13, 0xee, 0x3b, 0xc8, 0x19, 0x4a, 0x3d, 0xa6, 0x53, 0x18, 0xbc,
  0x7e, 0x28, 0x3e, 0x3d, 0xb2, 0xf2, 0x55, 0xbe, 0xf4, 0x8f, 0xcc, 0xbd,
  0x9f, 0x9b, 0xd6, 0xbc, 0x5e, 0x2e, 0x02, 0x3e, 0xcb, 0x33, 0xe8, 0x3c,
  0xcd, 0x38, 0x2c, 0x3e, 0xe7, 0x74, 0x4b, 0x3e, 0x16, 0x82, 0xf6, 0x3d,
  0x25, 0x1a, 0xc4, 0x3d, 0x7e, 0xa2, 0x8c, 0xbb, 0x9b, 0xcb, 0xe3, 0xbd,
  0x3e, 0xff, 0x10, 0xbb, 0xca, 0x36, 0xaa, 0xbd, 0xce, 0xd8, 0x20, 0xbe,
  0xae, 0x6a, 0x1b, 0x3d, 0x7a, 0x09, 0x82, 0x3d, 0xab, 0xfa, 0x2a, 0xbe,
  0x0e, 0x53, 0xfa, 0xbc, 0x84, 0xd5, 0xd5, 0xbc, 0x8f, 0xfa, 0x64, 0x3e,
  0x02, 0x18, 0x81, 0xbd, 0x0e, 0x7e, 0x81, 0x3e, 0xf9, 0x48, 0x56, 0xbd,
  0x14, 0x1f, 0x81, 0xbd, 0x29, 0x38, 0x33, 0xbe, 0x89, 0xcc, 0x25, 0xba,
  0x1c, 0x5f, 0xd4, 0xbb, 0x0e, 0xdc, 0x05, 0xbc, 0x78, 0xd9, 0x09, 0x3d,
  0xc9, 0x03, 0x07, 0xbe, 0x0b, 0x9e, 0xab, 0x3d, 0x2b, 0xe2, 0x53, 0x3e,
  0xb9, 0x83, 0xb7, 0xbd, 0x91, 0xb6, 0xbf, 0x3d, 0xe8, 0xc6, 0xda, 0x3d,
  0x4c, 0xb5, 0x72, 0xbe, 0x4b, 0x74, 0xf1, 0xbd, 0x2f, 0xe1, 0xd5, 0x3c,
  0xb3, 0x5d, 0x15, 0x3d, 0xc9, 0x91, 0x0f, 0x3d, 0xca, 0x6e, 0x1b, 0x3c,
  0xdc, 0x7d, 0x77, 0x3d, 0x73, 0x30, 0xb9, 0xbd, 0xd8, 0x2b, 0x39, 0x3d,
  0x3e, 0xba, 0x02, 0x3d, 0x70, 0x92, 0xb1, 0xbd, 0xf1, 0x57, 0x44, 0xbc,
  0xfd, 0x5f, 0xd5, 0x3c, 0x16, 0x0d, 0x9e, 0x3e, 0x5b, 0x51, 0x98, 0xbd,
  0xc0, 0xf7, 0x66, 0x3e, 0x65, 0xbd, 0x36, 0x3e, 0xd9, 0xf8, 0xdf, 0xbd,
  0xa3, 0x91, 0x24, 0x3e, 0xc7, 0xb4, 0x7c, 0xbc, 0x3f, 0x53, 0xfe, 0xbc,
  0x9a, 0x3c, 0xa3, 0x3c, 0xd4, 0x3f, 0x17, 0x3e, 0x4d, 0x27, 0x5d, 0x3e,
  0x9f, 0x10, 0x63, 0xbd, 0x6d, 0x6b, 0x49, 0x3e, 0x15, 0xfe, 0x35, 0xbe,
  0x42, 0xcb, 0x02, 0xbe, 0xea, 0xde, 0x1b, 0xbe, 0xb9, 0x0d, 0x03, 0x3c,
  0x13, 0x04, 0x86, 0x3d, 0x16, 0xa4, 0x27, 0x3d, 0x19, 0x92, 0xb8, 0x3d,
  0xab, 0xc7, 0xf1, 0xbd, 0x8f, 0xb5, 0xc0, 0xbd, 0xb1, 0xa4, 0x4d, 0x3e,
  0x32, 0x7b, 0x3a, 0x3d, 0xbf, 0x2d, 0x18, 0x3e, 0x47, 0xdf, 0xca, 0xbc,
  0x71, 0xc7, 0x81, 0xbd, 0x4e, 0xe5, 0x5b, 0xbe, 0xeb, 0x27, 0xa5, 0x3c,
  0xda, 0x2a, 0x97, 0xbd, 0x5f, 0x1c, 0xc3, 0xbc, 0x5c, 0x97, 0x1d, 0x3c,
  0x43, 0xf7, 0x44, 0x3e, 0xbd, 0x51, 0x13, 0x3e, 0xe5, 0x9a, 0x2a, 0xbe,
  0x45, 0x5b, 0xb4, 0x3d, 0x82, 0x5a, 0x3a, 0x3d, 0xff, 0x7b, 0x17, 0xbe,
  0x04, 0x18, 0x18, 0xbd, 0xc0, 0x92, 0x21, 0xbc, 0x0c, 0x80, 0xde, 0x3d,
  0xd0, 0x47, 0x05, 0xbe, 0x35, 0x8f, 0x95, 0xbd, 0xe9, 0xf4, 0x3d, 0x3e,
  0x11, 0xc5, 0x5b, 0x3d, 0x12, 0xc0, 0xa9, 0x3b, 0x6f, 0x70, 0xfe, 0x3a,
  0x14, 0x34, 0xa2, 0x3c, 0xaa, 0x83, 0xa9, 0x3d, 0x59, 0x47, 0x06, 0xbc,
  0xae, 0x56, 0x0a, 0x3e, 0x39, 0x89, 0x02, 0x3e, 0xea, 0x86, 0x63, 0x3d,
  0x82, 0x54, 0x47, 0xbd, 0x47, 0x11, 0xf1, 0xbd, 0x53, 0xbe, 0x84, 0x3d,
  0x84, 0x81, 0x1a, 0x3e, 0x82, 0xa4, 0x69, 0xbe, 0x9a, 0x01, 0xae, 0x3d,
  0x53, 0xf7, 0x25, 0x3c, 0xdc, 0xe7, 0x7d, 0xbe, 0x7d, 0x81, 0x86, 0x3d,
  0xb6, 0x85, 0x7b, 0xbe, 0xed, 0x0a, 0xdf, 0xbb, 0xab, 0x09, 0x2e, 0xbd,
  0x36, 0xab, 0x9e, 0xbc, 0x2d, 0x8e, 0x1e, 0xbe, 0x04, 0x80, 0x9e, 0xbd,
  0x9a, 0x5e, 0x2b, 0x3d, 0xf5, 0x15, 0x7b, 0x3d, 0x05, 0xd9, 0x13, 0xbe,
  0x82, 0x54, 0x49, 0xbe, 0xf0, 0x37, 0xc0, 0x3d, 0xed, 0x08, 0x32, 0x3d,
  0xb4, 0x34, 0xdc, 0xbd, 0x53, 0x29, 0xca, 0x3d, 0x7e, 0x0c, 0x58, 0xbe,
  0xe2, 0xf5, 0x8b, 0x3c, 0x9b, 0x91, 0x16, 0x3d, 0x20, 0x8c, 0xd8, 0xbc,
  0x43, 0x6a, 0xa0, 0x3c, 0x94, 0x61, 0x5e, 0xbd, 0x28, 0xf9, 0x92, 0xbd,
  0xa0, 0x25, 0x55, 0xbd, 0x93, 0xed, 0x14, 0x3e, 0xa4, 0x89, 0x80, 0x3d,
  0x5f, 0x01, 0xe1, 0xbc, 0x55, 0xff, 0x3a, 0x3e, 0x3a, 0x93, 0xcd, 0x3d,
  0xa2, 0x08, 0x00, 0xbe, 0x48, 0xdf, 0xd3, 0xbd, 0xc2, 0xa7, 0x1a, 0xbe,
  0x0d, 0xda, 0xab, 0xbd, 0x40, 0x6e, 0x19, 0xbd, 0x8f, 0xc0, 0xf6, 0x3d,
  0x51, 0xeb, 0xa3, 0xbd, 0xf3, 0xd6, 0x95, 0xbe, 0xcf, 0xeb, 0x54, 0x3c,
  0x53, 0x55, 0xa0, 0xbd, 0xc4, 0xde, 0x36, 0x3d, 0xb9, 0xa9, 0x06, 0x3a,
  0x09, 0x47, 0x1c, 0xbe, 0xd0, 0xa3, 0x7a, 0x3e, 0x8c, 0x63, 0xde, 0xbd,
  0xbf, 0x0f, 0xa7, 0xba, 0xe2, 0xce, 0x7c, 0xbe, 0xf6, 0x93, 0x52, 0x3e,
  0x3c, 0xae, 0xd6, 0x3d, 0xaa, 0xe0, 0x96, 0x3c, 0x22, 0xb2, 0x14, 0xbe,
  0x5c, 0xf2, 0x45, 0xbd, 0xdb, 0x3d, 0x04, 0xbd, 0x64, 0xb4, 0x21, 0x3e,
  0xeb, 0xd0, 0xc1, 0x3d, 0xa8, 0x50, 0xdf, 0x3c, 0x59, 0xc4, 0xcb, 0x3d,
  0x34, 0xa9, 0x28, 0x3c, 0x8a, 0xef, 0x98, 0xbd, 0xda, 0xad, 0x69, 0xbd,
  0xf7, 0x87, 0x1b, 0x3e, 0x35, 0x83, 0xff, 0xbd, 0x37, 0x96, 0xd9, 0xbd,
  0x96, 0xf1, 0x89, 0x3c, 0x9b, 0xcc, 0xb7, 0x3d, 0x04, 0xeb, 0xc7, 0x3d,
  0xe7, 0x53, 0xbe, 0x3d, 0x97, 0x87, 0x53, 0xbd, 0xe5, 0xe1, 0x89, 0xbc,
  0xb3, 0x1d, 0x77, 0x3c, 0x95, 0x53, 0x56, 0xbd, 0xa9, 0x51, 0x17, 0xbe,
  0x07, 0x8b, 0x6b, 0x3e, 0x7c, 0x0f, 0x62, 0xbc, 0xf7, 0x04, 0xab, 0x3d,
  0xb2, 0x9a, 0xab, 0x3d, 0x77, 0xa9, 0xca, 0xbd, 0x82, 0xaf, 0xe4, 0xbd,
  0xfc, 0xa6, 0xd5, 0x3d, 0xcc, 0x73, 0x81, 0xbd, 0x58, 0x05, 0x0a, 0xbe,
  0x52, 0x83, 0x9a, 0x3d, 0x2f, 0xa5, 0xe1, 0x3d, 0x3a, 0x5f, 0xde, 0xbc,
  0x9a, 0x96, 0x9c, 0xbd, 0x66, 0xd1, 0x68, 0x3d, 0x03, 0x47, 0x05, 0x3e,
  0x92, 0x18, 0x1a, 0xbe, 0x3d, 0xab, 0x86, 0xbd, 0x43, 0xcd, 0x51, 0x3d,
  0xa0, 0xec, 0x91, 0x3d, 0x28, 0xd0, 0x45, 0x3c, 0xf0, 0xc5, 0xda, 0x3d,
  0x54, 0x90, 0x75, 0xbe, 0x25, 0x6f, 0x0d, 0xbe, 0x98, 0xab, 0x65, 0xbd,
  0x98, 0xed, 0x82, 0x3d, 0xae, 0xde, 0xaa, 0x3d, 0x75, 0x43, 0x0c, 0xbd,
  0x1d, 0x16, 0x02, 0xbe, 0x26, 0x95, 0x89, 0xbb, 0x15, 0x15, 0x8f, 0x3d,
  0x59, 0x0a, 0x9f, 0x3e, 0xe2, 0x17, 0xbb, 0x3d, 0x5e, 0x5b, 0x54, 0xbd,
  0xec, 0x06, 0x38, 0x3d, 0x5e, 0x9d, 0x3c, 0xbe, 0x34, 0x04, 0x3f, 0x3e,
  0x8c, 0xbc, 0x9d, 0xbd, 0x0e, 0x64, 0x27, 0xbc, 0x46, 0x71, 0x32, 0xbe,
  0x14, 0x26, 0x1b, 0x3e, 0x79, 0x98, 0x0f, 0x3d, 0x4d, 0xb7, 0xab, 0x3d,
  0xbe, 0x8e, 0x6a, 0x3c, 0x75, 0x9d, 0x4a, 0x3d, 0x7c, 0xef, 0x34, 0x3e,
  0x20, 0x73, 0x7e, 0xbe, 0x32, 0x18, 0x67, 0x3e, 0xe1, 0x30, 0xe0, 0xbc,
  0x21, 0x7d, 0xd5, 0xbc, 0x90, 0x09, 0x11, 0xbd, 0x6d, 0x62, 0x51, 0x3d,
  0xef, 0x50, 0x02, 0x3e, 0xf7, 0x11, 0xbd, 0xbc, 0x93, 0x5e, 0xa3, 0x3d,
  0x33, 0x94, 0x2e, 0xbc, 0x91, 0xad, 0x1e, 0x3d, 0xce, 0xeb, 0xb7, 0x3d,
  0xc2, 0x46, 0x1a, 0x3e, 0xdb, 0x92, 0xd8, 0xbd, 0x17, 0x70, 0x07, 0xbe,
  0x92, 0x96, 0x21, 0xbe, 0xfe, 0x94, 0x5b, 0xbd, 0x95, 0x9f, 0xcd, 0xbc,
  0x2a, 0xd9, 0x97, 0xbd, 0x9d, 0x3d, 0x23, 0xbd, 0xe4, 0xd6, 0x07, 0x3d,
  0xe0, 0xf3, 0x0b, 0x3b, 0x31, 0xa9, 0x11, 0x3e, 0xd6, 0x25, 0x66, 0xbd,
  0x42, 0x6f, 0xc9, 0x3d, 0x66, 0x1f, 0xaa, 0x3d, 0x2e, 0x44, 0x0d, 0x3e,
  0xa5, 0x23, 0xf0, 0xbd, 0x2c, 0xc2, 0x9c, 0xbe, 0xed, 0xa7, 0x7c, 0xbb,
  0x8b, 0x6e, 0x42, 0xbc, 0x35, 0x68, 0xd2, 0xbd, 0xfa, 0x6e, 0x44, 0x3e,
  0xf8, 0x02, 0x5e, 0xbc, 0x1e, 0x41, 0x2a, 0x3e, 0x6d, 0xa7, 0x6f, 0x3d,
  0xb0, 0xd7, 0xca, 0xb9, 0x4f, 0x77, 0x10, 0xbc, 0xd4, 0x32, 0x3e, 0xbd,
  0xb1, 0x38, 0x6a, 0xbe, 0x17, 0x74, 0xfc, 0xbd, 0x0b, 0x64, 0xfa, 0x3d,
  0xd3, 0xc1, 0x96, 0x3d, 0x70, 0xd0, 0x08, 0x3e, 0x9f, 0xfb, 0x1a, 0xbd,
  0xee, 0x29, 0xe4, 0x3c, 0x0f, 0xfa, 0x43, 0xbe, 0xc4, 0x55, 0x3d, 0xbe,
  0x87, 0xef, 0xac, 0x3c, 0xce, 0x81, 0xa7, 0xbc, 0xfd, 0x15, 0x0f, 0xbe,
  0x77, 0x98, 0x14, 0xbd, 0xf6, 0x82, 0x82, 0x3c, 0xd0, 0xfc, 0x2c, 0x3e,
  0xa2, 0xa5, 0xf0, 0xbd, 0x1a, 0x0d, 0xd7, 0x3d, 0x02, 0x13, 0xe2, 0xbd,
  0x1e, 0x27, 0x24, 0x3e, 0xd0, 0xea, 0x9d, 0x3b, 0x46, 0xa9, 0x13, 0xbe,
  0x08, 0x5d, 0x2b, 0x3e, 0x65, 0xae, 0x30, 0x3e, 0xe5, 0xfb, 0x52, 0x3d,
  0xd1, 0x27, 0x14, 0xbe, 0x8f, 0x4f, 0x72, 0xbe, 0x8f, 0x39, 0x06, 0xbe,
  0x2a, 0x43, 0x42, 0x3d, 0x12, 0x47, 0xe5, 0xbd, 0xdf, 0xb4, 0x09, 0xbe,
  0x67, 0x4a, 0x8a, 0xbd, 0x7d, 0xd6, 0xa6, 0xbd, 0xf6, 0xc2, 0x05, 0xbe,
  0xec, 0x8f, 0x35, 0xbd, 0xeb, 0x52, 0x01, 0xbe, 0xed, 0xa0, 0x9e, 0xbc,
  0x3a, 0x0b, 0x85, 0xbd, 0x5a, 0xeb, 0x4b, 0xbe, 0x32, 0x48, 0x19, 0x3e,
  0x6c, 0x91, 0x41, 0xbd, 0x95, 0x14, 0xb2, 0x3d, 0x81, 0x53, 0x11, 0xbe,
  0x6e, 0x0a, 0x83, 0x3d, 0xa3, 0x0a, 0x43, 0x3e, 0xbc, 0xb0, 0x6a, 0x3c,
  0x1f, 0x00, 0xe0, 0xbd, 0xb5, 0x81, 0xb5, 0xbd, 0xd3, 0x53, 0x39, 0xbb,
  0x54, 0x40, 0x2e, 0x3e, 0x41, 0x67, 0x8d, 0x3d, 0x29, 0x4c, 0x6c, 0x3e,
  0xb5, 0xae, 0x74, 0xbb, 0xe0, 0x90, 0x91, 0xbe, 0xad, 0x1e, 0x93, 0xbd,
  0x2e, 0x8e, 0xbd, 0xbd, 0xa0, 0xf5, 0xe9, 0x3d, 0x1c, 0xca, 0x53, 0x3d,
  0x4d, 0xc2, 0xa6, 0x3b, 0xee, 0xce, 0xba, 0xbd, 0x5b, 0x84, 0x3c, 0xbe,
  0xa4, 0x0c, 0x50, 0xbd, 0x1d, 0x24, 0x80, 0x3e, 0x07, 0x90, 0x2c, 0xbe,
  0x51, 0x90, 0x43, 0x3e, 0x28, 0xce, 0x2f, 0x3b, 0xc8, 0x46, 0x29, 0xbe,
  0xaa, 0x69, 0x8c, 0x3b, 0x64, 0x9e, 0x52, 0x3d, 0xac, 0x00, 0xef, 0x3d,
  0xbf, 0xba, 0xf8, 0x3d, 0xe8, 0xc2, 0x97, 0x3d, 0x1a, 0xf1, 0xbe, 0xbd,
  0x3c, 0x57, 0x13, 0x3e, 0xee, 0x16, 0x24, 0x3d, 0x2c, 0x25, 0x9c, 0xbc,
  0x88, 0x97, 0xa8, 0xbe, 0xae, 0xcf, 0x93, 0xbd, 0x42, 0x7b, 0x8d, 0xbe,
  0xd9, 0x62, 0x80, 0x3d, 0xe9, 0x93, 0xc7, 0xbd, 0x68, 0xe5, 0x07, 0x3e,
  0xd5, 0xcb, 0x1f, 0xbd, 0x81, 0xcf, 0x8d, 0x3c, 0x34, 0xd3, 0xd6, 0xbd,
  0xf9, 0xf7, 0xbe, 0xbd, 0xb5, 0xb6, 0xe3, 0xbd, 0xed, 0x9e, 0x24, 0x3a,
  0xd9, 0x2d, 0x8c, 0xbe, 0x02, 0x4f, 0x82, 0x3e, 0x1d, 0x6f, 0x43, 0xbc,
  0xf6, 0x7b, 0x6e, 0xbe, 0xd1, 0xc4, 0x6d, 0xbe, 0xf0, 0x62, 0x67, 0xbd,
  0xc2, 0x96, 0x05, 0xbe, 0x78, 0x28, 0xdc, 0xbd, 0x56, 0xb7, 0x37, 0x3d,
  0x5f, 0x80, 0x51, 0x3d, 0x34, 0xff, 0x07, 0xbe, 0x75, 0x3f, 0xf2, 0x3c,
  0xe5, 0xf2, 0xcb, 0x3c, 0x2f, 0xda, 0x1d, 0x3d, 0xb1, 0x18, 0x70, 0xbe,
  0x49, 0xcc, 0x3f, 0xbc, 0xf0, 0x52, 0x70, 0x3d, 0x81, 0xbb, 0x4b, 0xbe,
  0xc0, 0x10, 0xbc, 0xbd, 0x19, 0xcf, 0x6a, 0x3e, 0xe5, 0x90, 0x06, 0xbe,
  0xc1, 0x85, 0x25, 0xbe, 0x1e, 0x1f, 0xff, 0xbd, 0x8b, 0xf2, 0xe5, 0xbc,
  0x8a, 0x79, 0x59, 0xbd, 0xef, 0xa2, 0xa9, 0x3c, 0x70, 0xdf, 0xeb, 0x3d,
  0x6d, 0xa3, 0xe4, 0x3d, 0x11, 0x60, 0x2f, 0xbe, 0xe5, 0x6f, 0x8d, 0xbe,
  0xf8, 0x24, 0x4e, 0x3d, 0x2a, 0x0e, 0x73, 0xbd, 0x69, 0x93, 0x4c, 0xbe,
  0x7d, 0xd0, 0xaf, 0x3c, 0xdd, 0xa5, 0xab, 0x3d, 0xd3, 0x3b, 0x32, 0x3e,
  0x8d, 0x35, 0x50, 0x3e, 0x1e, 0xc4, 0x8c, 0x3d, 0xd1, 0x38, 0x2f, 0xbd,
  0x55, 0x3f, 0x97, 0x3c, 0x8d, 0xc1, 0x82, 0xbd, 0x47, 0xc4, 0xc0, 0xbd,
  0xdf, 0xd0, 0xca, 0x3c, 0xcb, 0xed, 0x13, 0x3d, 0xd1, 0xb1, 0xc3, 0x3d,
  0x62, 0x30, 0x92, 0x3d, 0xa8, 0x7f, 0xca, 0xbd, 0x05, 0x1d, 0x7d, 0x3d,
  0x52, 0x49, 0xb9, 0xbd, 0xd4, 0x04, 0xdf, 0x3d, 0xec, 0x02, 0x20, 0x3e,
  0xbd, 0x2a, 0x9e, 0x3c, 0x8c, 0x3d, 0x00, 0x3d, 0x4c, 0xea, 0x51, 0x3e,
  0x05, 0x20, 0xaa, 0x3d, 0x44, 0x81, 0x5c, 0x3e, 0xc8, 0x31, 0xd3, 0x3c,
  0x5a, 0x58, 0x38, 0xbe, 0x10, 0x07, 0x68, 0xbe, 0x92, 0x75, 0xb6, 0xbc,
  0x22, 0x75, 0x9b, 0x3d, 0x42, 0xc6, 0x59, 0x3e, 0x32, 0xb8, 0x8b, 0xbd,
  0x17, 0x69, 0xb3, 0x3d, 0xed, 0x51, 0xea, 0x3d, 0x8b, 0x37, 0x45, 0x3d,
  0x9e, 0xe0, 0xd0, 0xbd, 0xa8, 0x08, 0xa2, 0x3e, 0x33, 0x37, 0x83, 0xbd,
  0xe9, 0x75, 0x9e, 0x3d, 0x0e, 0x68, 0x5b, 0x3b, 0xca, 0x10, 0xc3, 0x3d,
  0x57, 0x5b, 0x63, 0x3e, 0xdb, 0x31, 0xe0, 0xb9, 0xae, 0x31, 0xa7, 0x3d,
  0x0b, 0xcf, 0xf0, 0x3d, 0x46, 0xf5, 0x28, 0x3c, 0x00, 0x41, 0x48, 0x3d,
  0xb1, 0x2d, 0xd2, 0x3c, 0x2e, 0xba, 0x81, 0xbe, 0xd4, 0x63, 0xe4, 0x3d,
  0xc9, 0x27, 0x37, 0xbd, 0xf1, 0x7a, 0x0d, 0xbe, 0x43, 0xfc, 0xaf, 0x3d,
  0x21, 0x88, 0xde, 0x3d, 0x92, 0x71, 0xf9, 0xbc, 0x05, 0x1a, 0x85, 0x3c,
  0x38, 0xcc, 0x3c, 0x3e, 0xa6, 0x60, 0x19, 0x3e, 0xbc, 0x0f, 0x70, 0xbe,
  0x16, 0x83, 0x36, 0xbe, 0xc1, 0x4f, 0x38, 0xbe, 0x07, 0x26, 0xc7, 0xbc,
  0x29, 0xde, 0xc4, 0x3d, 0xbe, 0x42, 0x0c, 0x3c, 0x5c, 0x51, 0xb0, 0xbd,
  0x6d, 0x19, 0x55, 0x3e, 0xb9, 0x5c, 0xf2, 0x3d, 0x3b, 0x15, 0x3c, 0x3d,
  0x52, 0xbe, 0xa1, 0xbd, 0x6b, 0xa0, 0x50, 0xbe, 0xfd, 0x18, 0x46, 0xbe,
  0x6a, 0xe1, 0xbc, 0xbc, 0xe7, 0xad, 0x3b, 0xbe, 0x63, 0x7e, 0x89, 0xbd,
  0xb0, 0x3b, 0x88, 0xbe, 0x79, 0x79, 0x5d, 0x3d, 0xe5, 0x69, 0xe0, 0xbd,
  0x65, 0x2c, 0x51, 0x3d, 0x75, 0x6c, 0x4b, 0xbd, 0xf7, 0x5b, 0x45, 0x3d,
  0xa5, 0x28, 0x6d, 0xbc, 0x65, 0xae, 0xea, 0xbc, 0xc7, 0x6d, 0x0c, 0x3e,
  0xa2, 0x90, 0x5f, 0xbe, 0x70, 0x47, 0xab, 0xbd, 0x39, 0xf9, 0x69, 0xbd,
  0x53, 0xcc, 0x47, 0x3e, 0xac, 0x1f, 0x96, 0x3e, 0xb2, 0xcb, 0xa8, 0x3c,
  0x34, 0x74, 0x0f, 0xbe, 0x9f, 0x4a, 0x98, 0xbd, 0xb3, 0x52, 0x80, 0x3c,
  0x08, 0x70, 0x8f, 0x3d, 0x32, 0x88, 0x1c, 0x3e, 0xf8, 0xc2, 0x34, 0x3e,
  0xb6, 0x2e, 0x9d, 0xbd, 0x85, 0xd2, 0x78, 0x3e, 0x19, 0x78, 0x64, 0x3e,
  0x68, 0xdf, 0x87, 0x3e, 0x3c, 0xac, 0x8c, 0xbd, 0x64, 0x04, 0xfd, 0x3d,
  0xfc, 0xb7, 0x8f, 0x3d, 0x93, 0x61, 0x6c, 0x3d, 0x70, 0xcb, 0x1d, 0x3e,
  0x00, 0xff, 0xc7, 0xbc, 0xa4, 0x4b, 0x5d, 0xbd, 0x85, 0x14, 0xcd, 0x3d,
  0x6b, 0x05, 0x1b, 0xbe, 0xc0, 0x7d, 0x94, 0x3e, 0x63, 0xed, 0xbf, 0x3e,
  0xf7, 0x2d, 0x44, 0x3e, 0x41, 0xbc, 0xec, 0xbb, 0xec, 0xc5, 0x80, 0xbd,
  0xb3, 0x22, 0x3a, 0x3d, 0x50, 0x90, 0xb5, 0xbd, 0xeb, 0xfd, 0x66, 0xbd,
  0x56, 0x96, 0x9e, 0xbd, 0xb5, 0x8b, 0x95, 0xbd, 0x0c, 0x07, 0xec, 0xbd,
  0x20, 0xb8, 0xa2, 0xbd, 0x7c, 0x31, 0xf1, 0xbd, 0x19, 0x93, 0x8e, 0xbd,
  0x89, 0xf7, 0x7c, 0x3c, 0xad, 0xd7, 0x60, 0xbc, 0x27, 0xd9, 0x13, 0x3e,
  0x63, 0x28, 0x7a, 0x3d, 0x36, 0xed, 0x8a, 0xbd, 0x88, 0xc9, 0x5f, 0x3d,
  0x1c, 0x14, 0x04, 0xbe, 0xd5, 0x79, 0xea, 0xbd, 0x04, 0xed, 0x1c, 0x3e,
  0x77, 0x39, 0x8a, 0xbd, 0xe7, 0x3b, 0xf2, 0x3c, 0x43, 0x97, 0x8b, 0x3d,
  0x0f, 0x25, 0x26, 0x3e, 0xab, 0x31, 0x96, 0x3d, 0x60, 0xb9, 0x07, 0xbe,
  0x36, 0x61, 0x2d, 0xbe, 0x1f, 0x64, 0x65, 0x3e, 0x47, 0x8d, 0x46, 0x3c,
  0x07, 0xbf, 0x16, 0xbd, 0xb2, 0xb7, 0x8b, 0xbd, 0xf5, 0x0d, 0xad, 0x3d,
  0xa2, 0x9c, 0x42, 0xbb, 0xd6, 0x8d, 0x39, 0xbd, 0x39, 0xc0, 0xe4, 0xbc,
  0xd7, 0xe4, 0x11, 0xbb, 0x50, 0x02, 0x21, 0xbe, 0x1d, 0xe6, 0x16, 0x3d,
  0xbd, 0xbc, 0xc6, 0x3d, 0xe2, 0x20, 0x43, 0xbe, 0xd9, 0x27, 0xcb, 0x3a,
  0xf8, 0x69, 0x1b, 0x39, 0x36, 0xf8, 0x13, 0x3c, 0x75, 0x24, 0x4b, 0xbe,
  0x54, 0x0f, 0x5e, 0xbd, 0xe2, 0xfc, 0xff, 0xff, 0x10, 0x00, 0x00, 0x00,
  0x07, 0x00, 0x00, 0x00, 0x14, 0x00, 0x00, 0x00, 0x34, 0x00, 0x00, 0x00,
  0x02, 0x00, 0x00, 0x00, 0x40, 0x00, 0x00, 0x00, 0x10, 0x00, 0x00, 0x00,
  0x1d, 0x00, 0x00, 0x00, 0x6d, 0x6f, 0x64, 0x65, 0x6c, 0x5f, 0x34, 0x36,
  0x2f, 0x6c, 0x73, 0x74, 0x6d, 0x5f, 0x63, 0x65, 0x6c, 0x6c, 0x5f, 0x38,
  0x2f, 0x4d, 0x61, 0x74, 0x4d, 0x75, 0x6c, 0x5f, 0x31, 0x00, 0x00, 0x00,
  0xdc, 0xfb, 0xff, 0xff, 0x3e, 0xfe, 0xff, 0xff, 0x04, 0x00, 0x00, 0x00,
  0x00, 0x01, 0x00, 0x00, 0x9f, 0x3c, 0x1b, 0xbe, 0x60, 0x2d, 0xc5, 0x3e,
  0xed, 0x5f, 0xa4, 0x3e, 0x49, 0x0f, 0x7a, 0x3e, 0x47, 0xdf, 0x0d, 0x3f,
  0xf8, 0xb8, 0xf1, 0x3e, 0x7e, 0xd4, 0x68, 0x3e, 0xd3, 0x21, 0x7c, 0xbe,
  0xe6, 0x54, 0x14, 0xbe, 0x8b, 0x01, 0xd4, 0x3e, 0x19, 0x02, 0x59, 0xbe,
  0x17, 0xb3, 0xce, 0xbe, 0x05, 0x8e, 0x97, 0x3d, 0x98, 0xec, 0xda, 0x3e,
  0x85, 0x16, 0x53, 0xbd, 0x10, 0xe3, 0xcc, 0xbe, 0x60, 0xa0, 0xe7, 0x3d,
  0x78, 0x34, 0xeb, 0xbd, 0x54, 0x29, 0x91, 0xbe, 0x2c, 0x63, 0x13, 0x3e,
  0x9c, 0xc8, 0xe4, 0x3d, 0xc8, 0x2a, 0x66, 0x3e, 0x60, 0x96, 0x77, 0x3c,
  0x80, 0x5a, 0x42, 0x3c, 0xc0, 0xbd, 0x8b, 0xbb, 0x8c, 0x65, 0x99, 0x3e,
  0xd0, 0x47, 0xdf, 0xbc, 0x38, 0xd9, 0xa3, 0x3d, 0x78, 0x66, 0xcb, 0x3d,
  0x55, 0x33, 0x08, 0xbe, 0x40, 0x87, 0x68, 0xbc, 0xee, 0xef, 0x9e, 0xbd,
  0xbe, 0x9d, 0xed, 0x3e, 0xdd, 0x8d, 0x18, 0x3e, 0xb3, 0x77, 0xa3, 0x3e,
  0x48, 0x2b, 0xac, 0xbe, 0xee, 0x6b, 0xd1, 0x3e, 0x8e, 0x18, 0x8e, 0xbe,
  0xd8, 0x95, 0x27, 0x3e, 0xa4, 0xa9, 0x06, 0xbf, 0xf2, 0x1e, 0xa1, 0xbe,
  0x43, 0xb6, 0xc8, 0xbe, 0x25, 0x89, 0xc7, 0xbe, 0x17, 0xdd, 0x1d, 0x3f,
  0xf5, 0x21, 0x67, 0x3e, 0xd2, 0xb1, 0x1f, 0x3e, 0x3a, 0xf9, 0x80, 0x3e,
  0xc5, 0x9d, 0xa8, 0x3e, 0xd7, 0x70, 0xac, 0xbe, 0x31, 0xa4, 0xcd, 0x3e,
  0x27, 0x6f, 0xda, 0x3e, 0xdc, 0x47, 0x0e, 0xbe, 0x89, 0xd9, 0x03, 0xbe,
  0xe6, 0xb6, 0x2e, 0xbe, 0xd0, 0x6c, 0x11, 0x3f, 0xb7, 0x0e, 0x04, 0x3f,
  0x8a, 0x23, 0x68, 0xbd, 0xab, 0xc0, 0xa6, 0xbe, 0xa7, 0xab, 0xb9, 0x3e,
  0x4a, 0xa1, 0x09, 0xbe, 0x16, 0xb8, 0xc1, 0x3e, 0xf2, 0x9d, 0xc1, 0x3e,
  0xfc, 0x73, 0xb3, 0xbe, 0x11, 0x98, 0xcb, 0xbe, 0x36, 0xfe, 0xff, 0xff,
  0x10, 0x00, 0x00, 0x00, 0x06, 0x00, 0x00, 0x00, 0x14, 0x00, 0x00, 0x00,
  0x30, 0x00, 0x00, 0x00, 0x02, 0x00, 0x00, 0x00, 0x40, 0x00, 0x00, 0x00,
  0x01, 0x00, 0x00, 0x00, 0x1b, 0x00, 0x00, 0x00, 0x6d, 0x6f, 0x64, 0x65,
  0x6c, 0x5f, 0x34, 0x36, 0x2f, 0x6c, 0x73, 0x74, 0x6d, 0x5f, 0x63, 0x65,
  0x6c, 0x6c, 0x5f, 0x38, 0x2f, 0x4d, 0x61, 0x74, 0x4d, 0x75, 0x6c, 0x00,
  0x2c, 0xfd, 0xff, 0xff, 0x8e, 0xff, 0xff, 0xff, 0x04, 0x00, 0x00, 0x00,
  0x04, 0x00, 0x00, 0x00, 0x01, 0x00, 0x00, 0x00, 0x00, 0x00, 0x0e, 0x00,
  0x18, 0x00, 0x08, 0x00, 0x07, 0x00, 0x0c, 0x00, 0x10, 0x00, 0x14, 0x00,
  0x0e, 0x00, 0x00, 0x00, 0x00, 0x00, 0x00, 0x02, 0x10, 0x00, 0x00, 0x00,
  0x05, 0x00, 0x00, 0x00, 0x0c, 0x00, 0x00, 0x00, 0x38, 0x00, 0x00, 0x00,
  0x00, 0x00, 0x00, 0x00, 0x24, 0x00, 0x00, 0x00, 0x6d, 0x6f, 0x64, 0x65,
  0x6c, 0x5f, 0x34, 0x36, 0x2f, 0x6c, 0x73, 0x74, 0x6d, 0x5f, 0x63, 0x65,
  0x6c, 0x6c, 0x5f, 0x38, 0x2f, 0x73, 0x70, 0x6c, 0x69, 0x74, 0x2f, 0x73,
  0x70, 0x6c, 0x69, 0x74, 0x5f, 0x64, 0x69, 0x6d, 0x00, 0x00, 0x00, 0x00,
  0x04, 0x00, 0x06, 0x00, 0x04, 0x00, 0x00, 0x00, 0x00, 0x00, 0x06, 0x00,
  0x08, 0x00, 0x04, 0x00, 0x06, 0x00, 0x00, 0x00, 0x04, 0x00, 0x00, 0x00,
  0x00, 0x01, 0x00, 0x00, 0x8a, 0x07, 0x55, 0x3e, 0xc2, 0xec, 0xa3, 0xbd,
  0xa4, 0x14, 0x45, 0x3e, 0x71, 0xf4, 0x8f, 0x3e, 0x04, 0x43, 0x77, 0x3e,
  0x52, 0x5a, 0x85, 0x3e, 0x76, 0x28, 0xda, 0x3e, 0xa0, 0xf0, 0x27, 0x3e,
  0xff, 0xb2, 0x32, 0x3e, 0xc3, 0xce, 0xd2, 0x3e, 0xed, 0x62, 0x42, 0x3e,
  0xe6, 0x71, 0x82, 0x3e, 0xfc, 0x55, 0x3d, 0x3e, 0x30, 0x48, 0x55, 0x3d,
  0x79, 0xd5, 0xee, 0x3e, 0xcf, 0xab, 0xb4, 0x3e, 0x00, 0x00, 0x80, 0x3f,
  0x00, 0x00, 0x80, 0x3f, 0x00, 0x00, 0x80, 0x3f, 0x00, 0x00, 0x80, 0x3f,
  0x00, 0x00, 0x80, 0x3f, 0x00, 0x00, 0x80, 0x3f, 0x00, 0x00, 0x80, 0x3f,
  0x00, 0x00, 0x80, 0x3f, 0x00, 0x00, 0x80, 0x3f, 0x00, 0x00, 0x80, 0x3f,
  0x00, 0x00, 0x80, 0x3f, 0x00, 0x00, 0x80, 0x3f, 0x00, 0x00, 0x80, 0x3f,
  0x00, 0x00, 0x80, 0x3f, 0x00, 0x00, 0x80, 0x3f, 0x00, 0x00, 0x80, 0x3f,
  0x77, 0x8b, 0x3d, 0x3e, 0x47, 0x58, 0x0f, 0xbf, 0x39, 0x50, 0x7f, 0xbe,
  0x66, 0x4d, 0xa3, 0x3e, 0x7d, 0x02, 0x7b, 0xbe, 0x90, 0x3c, 0xa1, 0x3e,
  0x53, 0x7d, 0xb6, 0xbe, 0xe8, 0x31, 0x31, 0xbd, 0x3c, 0x59, 0x38, 0x3e,
  0xdc, 0xba, 0x7a, 0xbe, 0xe2, 0x01, 0x95, 0x3e, 0xfe, 0x7f, 0x64, 0x3e,
  0xad, 0xb1, 0x85, 0xbe, 0x12, 0x6b, 0x21, 0xbf, 0xf4, 0x6c, 0x98, 0x3e,
  0xfc, 0xda, 0x75, 0x3e, 0x5b, 0x51, 0x11, 0x3e, 0x89, 0x04, 0x65, 0x3c,
  0x61, 0xf6, 0x54, 0x3e, 0x3a, 0x8b, 0x3b, 0x3e, 0x57, 0xc7, 0x3c, 0x3e,
  0x02, 0xa0, 0x8c, 0x3e, 0x71, 0xd9, 0x0c, 0x3e, 0xb0, 0x64, 0xe7, 0x3e,
  0xfa, 0x68, 0x47, 0x3e, 0x38, 0xd0, 0x9a, 0x3e, 0x87, 0xa4, 0xa0, 0x3e,
  0xca, 0xa2, 0x9b, 0x3e, 0x71, 0x0b, 0xad, 0x3d, 0x89, 0xde, 0x8c, 0x3e,
  0x1c, 0x50, 0xdf, 0x3e, 0xbc, 0x05, 0xb8, 0x3e, 0x00, 0x00, 0x0e, 0x00,
  0x14, 0x00, 0x04, 0x00, 0x00, 0x00, 0x08, 0x00, 0x0c, 0x00, 0x10, 0x00,
  0x0e, 0x00, 0x00, 0x00, 0x10, 0x00, 0x00, 0x00, 0x04, 0x00, 0x00, 0x00,
  0x10, 0x00, 0x00, 0x00, 0x48, 0x00, 0x00, 0x00, 0x01, 0x00, 0x00, 0x00,
  0x40, 0x00, 0x00, 0x00, 0x34, 0x00, 0x00, 0x00, 0x6d, 0x6f, 0x64, 0x65,
  0x6c, 0x5f, 0x34, 0x36, 0x2f, 0x6c, 0x73, 0x74, 0x6d, 0x5f, 0x63, 0x65,
  0x6c, 0x6c, 0x5f, 0x38, 0x2f, 0x42, 0x69, 0x61, 0x73, 0x41, 0x64, 0x64,
  0x2f, 0x52, 0x65, 0x61, 0x64, 0x56, 0x61, 0x72, 0x69, 0x61, 0x62, 0x6c,
  0x65, 0x4f, 0x70, 0x2f, 0x72, 0x65, 0x73, 0x6f, 0x75, 0x72, 0x63, 0x65,
  0x00, 0x00, 0x00, 0x00, 0x1c, 0xff, 0xff, 0xff, 0x78, 0xff, 0xff, 0xff,
  0x14, 0x00, 0x00, 0x00, 0x03, 0x00, 0x00, 0x00, 0x18, 0x00, 0x00, 0x00,
  0x30, 0x00, 0x00, 0x00, 0x20, 0x00, 0x00, 0x00, 0x02, 0x00, 0x00, 0x00,
  0x01, 0x00, 0x00, 0x00, 0x10, 0x00, 0x00, 0x00, 0x08, 0x00, 0x00, 0x00,
  0x69, 0x6e, 0x70, 0x75, 0x74, 0x5f, 0x39, 0x31, 0x00, 0x00, 0x00, 0x00,
  0x02, 0x00, 0x00, 0x00, 0xff, 0xff, 0xff, 0xff, 0x10, 0x00, 0x00, 0x00,
  0x60, 0xff, 0xff, 0xff, 0xbc, 0xff, 0xff, 0xff, 0x14, 0x00, 0x00, 0x00,
  0x02, 0x00, 0x00, 0x00, 0x18, 0x00, 0x00, 0x00, 0x30, 0x00, 0x00, 0x00,
  0x20, 0x00, 0x00, 0x00, 0x02, 0x00, 0x00, 0x00, 0x01, 0x00, 0x00, 0x00,
  0x10, 0x00, 0x00, 0x00, 0x08, 0x00, 0x00, 0x00, 0x69, 0x6e, 0x70, 0x75,
  0x74, 0x5f, 0x39, 0x30, 0x00, 0x00, 0x00, 0x00, 0x02, 0x00, 0x00, 0x00,
  0xff, 0xff, 0xff, 0xff, 0x10, 0x00, 0x00, 0x00, 0xa4, 0xff, 0xff, 0xff,
  0x14, 0x00, 0x18, 0x00, 0x04, 0x00, 0x00, 0x00, 0x08, 0x00, 0x0c, 0x00,
  0x10, 0x00, 0x00, 0x00, 0x00, 0x00, 0x14, 0x00, 0x14, 0x00, 0x00, 0x00,
  0x14, 0x00, 0x00, 0x00, 0x01, 0x00, 0x00, 0x00, 0x18, 0x00, 0x00, 0x00,
  0x30, 0x00, 0x00, 0x00, 0x20, 0x00, 0x00, 0x00, 0x02, 0x00, 0x00, 0x00,
  0x01, 0x00, 0x00, 0x00, 0x01, 0x00, 0x00, 0x00, 0x08, 0x00, 0x00, 0x00,
  0x69, 0x6e, 0x70, 0x75, 0x74, 0x5f, 0x38, 0x39, 0x00, 0x00, 0x00, 0x00,
  0x02, 0x00, 0x00, 0x00, 0xff, 0xff, 0xff, 0xff, 0x01, 0x00, 0x00, 0x00,
  0xfc, 0xff, 0xff, 0xff, 0x04, 0x00, 0x04, 0x00, 0x04, 0x00, 0x00, 0x00
};
unsigned int _content_lstm_model_fw_tflite_len = 7980;
